57
9F
42
87
A5
C8
A0
22
44
28
DA
6B
8B
A0
C1
C9
CF
0B
71
78
4D
B0
71
93
14
A2
BC
78
28
A9
15
00
C9
D7
07
EE
1F
27
91
E3
D0
EB
CE
DB
0C
0F
24
5B
9B
15
53
68
45
45
7B
DA
67
B7
D2
10
E0
67
90
29
BE
17
98
5D
BE
A9
C1
0E
14
0F
69
A0
9F
0D
7B
BA
A2
4F
A2
68
14
9D
C2
FB
D4
14
8B
34
FC
9B
DE
3A
32
F6
18
71
1F
59
FF
B3
E8
E9
D4
07
76
CF
41
99
9E
63
81
32
80
C3
AE
D4
57
B9
89
D3
D5
E7
8E
87
5D
26
78
FC
FF
F8
2F
67
61
83
EF
57
D3
B0
70
F1
94
71
A4
94
B4
D2
E9
8C
0B
F2
DF
60
59
ED
68
36
93
60
B2
12
D8
61
FA
B9
65
69
91
B8
99
81
29
AD
73
4D
C2
A7
9F
2B
B3
2B
9D
13
0B
76
80
F3
2C
94
D4
5E
26
2C
3F
A0
66
24
89
77
5C
A3
78
06
D0
6B
D3
12
93
F3
BD
C6
9E
DA
59
29
D0
5A
9D
7C
6E
F1
5A
14
9D
1A
35
83
BE
3E
7A
9B
61
73
21
B2
5E
74
44
71
E7
82
B8
05
DC
91
AF
2D
6B
CC
29
59
3D
04
F7
43
4B
98
75
2A
8D
39
1B
F4
3B
53
7A
98
65
A9
45
50
F5
EE
2A
B2
72
98
8C
90
BB
6A
ED
9C
43
64
5F
0E
7D
54
B8
8A
0E
54
FE
C9
27
F8
E1
0C
21
A6
DD
96
15
87
C8
07
9F
D5
18
DA
BF
85
F6
82
69
D6
11
66
AA
49
70
38
1D
EF
82
C5
67
E3
51
09
0A
AE
1F
9F
B5
68
26
D4
BD
BE
2E
FC
C3
A5
FF
AD
FB
90
93
25
59
84
DE
F7
F3
E0
3C
DA
43
0D
63
CD
3C
03
EC
71
EB
93
C6
28
D1
74
A4
15
99
23
42
14
33
55
BA
0D
59
18
84
CC
78
40
27
3B
CD
0A
89
89
8D
F5
7B
F8
08
C1
A0
5A
B5
C5
EF
CF
68
B1
63
1C
86
9D
A9
60
35
AD
AC
2D
6D
53
E9
BA
DE
F2
C4
EB
67
BF
64
F0
00
84
CA
35
C9
39
84
B2
6A
68
4E
70
85
77
50
3B
A4
7D
E8
91
50
51
CB
AE
C3
0F
1A
AB
4E
FE
1B
CE
02
65
84
4C
1E
88
7E
08
70
4C
F8
76
43
C9
31
67
C6
99
78
96
6B
C3
C5
AE
53
5F
D9
21
DD
74
70
5F
59
74
2B
F7
7C
29
7F
6D
F5
F8
63
B8
41
14
47
AE
C1
A0
4F
1E
95
3F
FE
6E
33
A9
E6
30
53
E5
1D
C8
5D
00
01
1E
94
20
25
41
38
43
DA
93
A5
A1
C1
E7
C1
90
85
D6
50
03
C5
03
2D
2B
B3
00
90
50
48
6E
D0
C9
0C
E4
6A
B2
A6
22
75
00
35
9A
21
76
01
62
86
07
B9
56
8A
FE
DA
37
A9
0D
B7
B9
DE
80
A7
2E
C9
34
93
B3
66
B9
55
5B
39
0A
75
DA
00
F7
BC
07
7E
F5
DD
88
73
37
40
9C
C5
77
D6
23
77
FD
D1
C1
B1
E4
F4
97
1D
CA
72
D6
54
68
30
D5
DF
6D
5C
DD
E2
B9
E5
D6
71
A5
F2
B6
9D
48
59
94
C6
AA
D5
F7
0F
4A
0F
AC
94
01
03
68
E9
B3
BD
48
A0
99
A5
03
D3
0B
59
C4
30
CB
FA
4D
94
D3
62
DA
FD
B7
51
8C
81
E0
B9
95
62
3C
7E
CB
6F
BB
94
90
D5
B9
13
28
44
EC
6C
F5
37
E6
C2
4B
39
A4
A5
B6
DC
77
C3
DD
D7
FC
F3
B9
B8
F1
05
A7
2C
19
B7
81
52
4A
29
17
B6
15
8C
6E
7B
CE
39
34
F3
5F
6B
4F
56
AE
AC
AD
2A
1F
E7
62
90
6C
89
3D
05
C1
3E
D7
8B
E8
2D
3C
48
18
0B
1E
46
37
4C
F0
D7
B3
D2
E7
9F
DC
A4
24
1D
63
7B
28
CB
6A
6A
C8
64
9A
C1
AD
84
6F
69
4C
07
F4
EB
CE
AC
B7
3E
03
EA
91
6A
09
ED
8F
AD
8A
72
A8
32
BD
92
1D
05
77
37
47
A4
3B
36
8E
08
BD
02
73
0B
2E
AA
CA
B1
14
DB
9C
9D
48
AB
CA
52
9D
F2
04
DA
05
A1
5F
FC
59
26
20
14
DC
2E
9C
1A
B1
8F
A5
5F
B9
EF
91
4D
4A
AD
6A
12
D8
B4
E4
F5
27
69
4F
AC
8A
2E
28
63
D5
C8
F8
31
77
14
CB
A8
24
F1
87
5D
60
98
2B
2B
C5
15
BD
1D
4A
22
92
F1
0B
61
1D
15
10
C5
F9
65
0D
71
16
04
05
62
2C
A9
D3
34
87
B3
4C
32
5E
92
C7
9C
2F
91
3E
42
02
C9
23
9F
5E
B3
E4
D7
98
72
C8
2F
F6
4E
11
A3
77
64
57
7E
97
23
30
76
35
78
92
E5
89
50
A7
0C
99
4A
2B
77
7E
90
CF
96
82
17
45
F8
E5
D6
1B
DD
BA
F2
DB
D2
96
8C
C8
4B
84
DA
B0
8D
AA
D7
19
C3
A2
C5
BA
A0
D5
09
B6
D7
A1
7C
4F
06
D2
EB
63
0D
5D
6F
DC
2B
C7
76
6E
E9
BB
A8
09
10
32
3F
67
53
3B
36
D9
8E
A1
BD
1B
7F
FC
FA
72
47
21
31
96
A2
21
F2
4D
68
E8
3B
D1
23
63
5A
B3
15
19
9A
E8
D5
51
42
E3
72
7F
7E
71
FB
F8
64
C2
99
15
D8
BB
B6
4A
88
9E
B3
43
EF
56
26
C9
8A
BC
63
A4
24
B8
75
E6
1B
68
E5
19
59
60
91
3D
A2
AA
D3
FA
E5
09
C5
ED
28
F8
B0
97
CE
56
E1
D8
92
C4
FD
37
FC
F2
9D
97
DA
03
30
B4
E3
41
71
06
6B
C4
80
D0
4E
C5
3D
F6
3D
6D
0D
8C
43
6E
E4
56
B2
61
0D
2E
D4
2A
45
2E
AD
F5
62
11
B6
54
97
A1
98
97
F1
66
DD
AE
DC
9A
9B
6A
A6
5F
58
0B
35
8B
EC
C2
39
40
6C
FF
EF
9A
74
D1
2B
AB
A5
42
CC
BE
59
3E
A4
B6
6C
01
D1
88
EB
F7
67
C3
82
1C
CE
EF
5E
88
AF
4A
07
1E
64
FB
70
0F
26
95
D1
73
D3
AB
31
F8
E1
1D
79
32
25
E4
AA
0C
27
AC
A8
76
1B
86
7E
4B
51
05
E9
35
80
D9
C5
27
EF
16
1A
42
41
CB
BA
A3
68
B3
55
0E
17
7F
12
9A
38
7C
50
38
D5
95
DF
44
2B
79
07
ED
C4
41
10
AD
75
E5
3B
0C
E5
55
4B
11
98
80
D8
E2
B3
6B
FC
6B
67
CC
24
BC
E1
83
81
8D
7D
08
FA
C1
C9
8A
EE
BE
EF
A9
4B
54
7F
16
E5
97
17
3E
F9
4A
29
76
36
10
C2
DA
4C
24
DD
4D
31
DA
D5
AB
1C
1F
B5
8A
5D
24
B4
28
F9
B3
BF
5E
CA
56
1C
44
20
C5
3A
D6
55
7C
30
22
20
8E
EF
D1
E8
45
FC
84
E4
31
8F
C1
D6
C3
6A
4F
F6
A9
2D
40
7F
CA
04
1F
0F
BE
76
E5
BB
26
87
5B
34
F6
AD
9D
BB
29
A1
1F
DB
B0
61
31
F3
4B
00
69
74
AD
2A
73
F7
AE
12
87
ED
08
EC
28
AF
F3
03
63
69
30
80
A5
DA
A2
44
35
D2
25
E6
46
F0
66
2F
E4
93
D9
D7
0B
08
6A
12
75
F2
7E
1D
21
F1
A0
05
DA
51
05
FF
AB
27
C4
60
7A
69
C6
40
DA
AC
EF
3E
BF
49
96
4A
D1
80
DC
C6
F2
DA
63
94
4B
83
19
A6
54
9E
25
7F
46
69
5F
40
53
A5
00
AD
D1
6F
6B
11
38
81
DB
89
81
38
CF
F4
92
B2
08
5E
B6
69
45
E6
8F
C5
13
E0
B5
FE
71
6D
00
CD
77
01
85
C6
75
97
F9
FD
75
2F
1E
79
39
5E
23
43
63
B6
2D
29
1C
3C
6E
AF
9C
A3
2D
8E
91
AD
DB
88
2F
E0
CE
24
F7
47
A2
ED
F6
40
E6
B0
1E
89
73
02
BF
20
AB
5B
DC
99
8A
F9
BD
38
07
CE
65
62
D6
14
C2
24
B9
39
EC
DB
A6
62
9B
0D
92
3A
16
86
BC
56
26
E7
31
83
00
3C
FC
3D
F4
83
8B
D9
65
E1
6E
A7
86
A7
60
F2
02
87
D4
1D
14
E7
D7
AA
ED
13
80
93
7A
32
96
FB
EE
12
B8
62
15
C4
BB
FA
25
A9
21
2B
D0
02
9D
52
09
F2
F0
9D
59
47
C7
C6
DB
C8
D9
D5
7A
F0
50
E8
82
89
CA
18
CD
05
92
72
2F
34
1E
7F
B6
3B
52
3F
AD
C2
5C
86
89
A3
CC
E4
EB
26
3A
E5
96
0A
4D
98
13
97
30
60
1D
43
53
CC
F7
F1
CB
2D
AC
9D
EC
DA
DF
C8
E0
E9
EB
2D
4D
57
D3
07
BC
E9
92
8A
01
25
A1
B2
06
3E
75
D9
8A
EC
4A
D6
99
76
F3
05
D0
53
4D
31
BC
B8
DE
89
8F
31
11
CC
9A
23
D6
1B
C8
71
16
C7
68
8A
4C
B8
5D
19
69
99
52
C7
A2
61
78
33
AD
92
D6
03
2E
1F
7B
FB
ED
B1
BE
15
F1
EC
06
88
34
EE
92
00
27
6F
9A
10
88
6C
58
AA
4D
50
5E
7B
63
B4
FE
11
53
F9
8C
C1
2A
CA
56
9C
37
DC
A4
EB
4B
B6
6B
F2
A5
85
82
AD
71
5A
D7
3F
2B
B5
3A
0E
EA
B8
9F
BD
32
AB
FE
DC
F6
D4
F8
AD
31
1C
18
FC
52
03
6E
77
09
70
A4
FA
4B
FC
B9
F6
31
73
84
9B
AC
A3
D9
5E
CE
57
BA
44
AC
33
71
5D
CF
09
D9
A2
8D
C7
99
16
B7
BE
90
82
3A
CA
F8
EB
BD
FC
07
E9
1F
60
C7
6E
37
02
32
63
B5
24
40
04
AD
99
26
BA
E0
40
50
18
7E
61
1A
38
AB
93
A3
E8
0F
2A
52
AF
0A
99
9D
C2
1B
4F
A5
50
F3
66
D5
21
7F
7B
5B
E0
3B
2C
78
39
0D
12
F1
38
25
15
A0
B5
BF
72
E4
4A
8C
01
8C
27
D0
B1
F8
44
97
4D
E5
97
48
C0
F7
04
6C
EF
BD
F9
81
2F
B1
27
C4
D2
5C
03
C4
C0
CD
D0
41
D9
78
91
0B
F0
55
22
BD
BA
39
85
FB
B0
09
3A
E4
A4
BD
29
E4
0B
79
A5
64
71
B6
EF
E1
8C
92
1E
C6
4B
24
41
7C
AD
A9
1B
74
8A
BC
EA
9C
04
A4
01
28
E2
AA
8C
6D
A3
B1
51
95
E8
C1
F6
F4
D3
95
3A
9E
39
FC
9A
66
25
36
5B
2F
72
C5
4B
F7
EA
CC
9F
4C
F6
AC
39
1A
DD
0A
2F
45
4B
A5
B9
9E
BA
74
BD
73
F0
D7
5A
95
8D
35
44
80
7A
0F
F7
E4
5C
16
B0
D2
42
69
6C
A0
F4
1B
65
BF
41
9F
DE
7B
93
1B
6F
03
72
49
18
80
FE
DC
80
F8
6B
F7
5D
47
8D
8D
9A
50
77
86
70
EB
22
55
2A
E3
74
88
DE
87
23
CD
0A
16
96
A2
16
14
FE
16
8D
EA
8D
6A
B1
9A
77
CB
6A
6E
D2
5A
D9
74
30
84
D7
24
8C
35
2C
30
83
B6
C6
99
D9
5C
2E
57
F2
3B
C1
FF
25
F3
19
1C
3E
04
0B
90
DE
64
84
8E
68
DB
33
75
91
DF
25
94
15
6B
AD
6E
47
5B
46
B9
16
87
38
BB
FA
D1
58
B9
55
E3
C9
B4
C7
CE
C2
B0
29
75
A5
3A
D4
4A
4E
6A
35
7C
58
FC
57
1E
35
EE
26
ED
29
A0
3E
01
D9
14
64
23
D5
D4
CB
A3
BE
80
9F
97
FC
77
35
B1
E5
DB
1E
8E
FC
DC
10
55
70
F4
F8
38
20
E9
43
7C
84
43
FD
D9
97
48
FC
D6
48
1C
ED
C4
13
A2
F5
78
FE
93
86
7A
F0
16
4F
E0
8B
C8
99
2B
31
5C
28
35
1F
A5
8E
36
6E
0B
8C
36
A7
F9
7B
3A
1C
F0
32
9A
04
38
94
74
CF
63
D4
DA
AB
ED
85
5D
C9
2D
12
68
53
21
1F
41
AC
2B
F7
D3
A5
F2
8D
41
63
3F
5B
E7
F7
6F
DB
46
52
2F
A0
7E
9D
A6
5B
E6
53
ED
CF
26
8E
6E
E7
BA
19
5F
0D
3E
D1
1A
FF
B4
D9
DA
1B
51
C9
76
17
9C
26
38
9A
43
5E
75
A9
31
E2
F8
D8
F1
E6
3F
2B
80
1E
B9
3E
70
53
BE
A4
AD
18
40
7E
62
36
15
7E
DC
CD
98
9F
AB
8D
C9
5D
EF
41
B5
60
A8
74
0C
A8
13
45
66
03
18
A4
27
45
3D
E7
43
1F
9E
D9
1D
FA
26
35
1A
52
42
63
2F
B1
24
64
92
4C
58
1E
74
EB
E3
5B
6E
7B
7F
16
41
3C
7D
04
DB
9B
5D
78
16
04
2D
B0
D6
EF
93
85
21
37
69
33
04
41
D1
F8
AD
34
D3
EB
4A
52
E3
E0
D6
91
10
2C
00
23
31
A1
DB
1A
54
5F
DC
A5
D7
09
59
2B
24
09
7E
D6
79
8D
85
6E
F8
4F
41
5C
B0
97
6D
40
44
ED
E4
F5
0F
3F
90
E3
1E
EC
09
75
75
E2
20
19
6B
1E
6F
65
2C
74
53
A4
44
14
80
74
2C
6D
34
F0
DB
98
65
6A
57
75
CD
F5
E1
56
EB
D6
B9
8B
70
A4
2A
5F
89
D6
54
5D
FA
18
F1
FB
0C
9D
E8
C0
0D
43
D9
F3
2D
B0
E8
7B
26
4A
51
91
A0
8A
9C
90
AF
46
70
B8
9C
44
95
17
DC
07
92
68
24
FA
A8
B2
BE
01
25
6B
32
8D
66
D8
57
38
E9
78
42
05
88
71
CC
78
AA
E8
3C
BF
7F
98
46
91
80
EB
0C
A9
1D
4A
2A
C2
35
DC
CF
1C
34
A7
D4
9D
9F
96
23
A7
88
6F
A0
B2
D7
5C
F1
D7
75
B8
E8
75
23
74
9E
C0
3E
49
02
F4
A5
51
90
5A
78
E4
77
97
FA
1A
BF
02
09
DF
34
61
BB
A6
B8
B0
DE
20
A6
81
15
C4
C1
D3
8D
43
47
B3
14
57
8D
0D
BB
84
24
36
1F
63
B8
A8
C2
6D
89
FE
93
C1
2E
F1
62
54
F2
F7
99
E6
17
25
EB
BC
DB
8A
9F
13
B2
E2
00
BC
60
13
FD
0E
84
DF
E3
F6
56
FC
A9
21
22
1F
B3
7C
2A
1C
E2
C1
C1
4D
FD
1C
57
1D
B0
8A
7F
30
C6
5F
C4
43
ED
C8
A3
50
3F
79
CC
68
1A
6F
08
4D
6B
B2
EA
CD
F3
2B
9B
71
C8
72
0E
F8
7C
0D
A8
C2
EC
EC
86
59
35
A9
2A
F4
A2
76
DC
3D
65
64
0A
50
96
74
9E
0A
20
B9
FB
68
AB
89
E0
A8
16
08
EA
82
75
F0
5B
2A
19
05
9E
3C
FC
FA
F9
E1
DF
83
B2
F5
78
D0
7F
18
09
FA
00
34
03
60
5C
99
E8
C7
9B
DD
37
77
87
D1
FC
A5
8D
78
20
06
DA
7F
09
0C
F4
01
5C
F4
99
E5
6E
19
99
F2
F9
76
0B
62
BD
27
BF
74
1E
C7
C5
9A
EC
D2
93
8C
58
ED
8B
E2
79
00
63
55
74
7D
BA
62
16
D3
D4
90
C9
60
72
06
07
B1
FB
A5
F8
40
BF
65
93
D2
71
6B
3F
7D
CD
38
FD
B1
0D
F1
AE
47
D3
44
9B
28
54
E4
08
46
6B
8F
78
E6
B4
F0
A6
F3
D5
B9
46
C7
A5
05
C4
F2
BE
41
23
4B
B2
51
13
05
16
2E
AD
78
19
0A
EC
6F
43
B2
B6
68
37
FA
DB
75
BB
7E
41
ED
50
D4
72
E6
82
A0
50
94
55
81
92
1A
AA
F5
12
44
7F
7E
33
43
B0
69
2B
68
E3
86
5D
1E
85
1E
8B
55
72
7D
BB
74
9D
8B
89
73
8D
9B
0D
B7
10
9F
7B
10
9E
2E
D3
CE
17
7E
B6
7A
85
94
18
8A
32
23
5F
25
21
9A
19
3E
A5
22
31
B2
3D
BE
EA
CE
DE
E5
5E
FC
94
B1
4A
2B
AF
81
26
B4
95
BE
BE
47
62
9D
EC
03
B7
86
C1
DD
28
73
0F
E6
B1
79
34
0F
DF
12
8B
F3
43
56
9E
72
57
44
A7
6C
83
E5
33
65
03
A0
E8
3A
A6
29
97
4E
1C
27
B4
4E
20
68
DD
7F
FA
E9
F2
BD
BF
11
B0
96
D5
D7
82
D8
3C
35
BD
BF
55
25
7A
7B
CF
91
4A
6B
38
7E
39
D9
67
97
D8
E1
00
4B
1F
3F
DC
4F
55
31
A6
57
8A
62
0C
C7
A2
E2
6D
9C
DD
BC
AD
A7
A7
66
A6
61
BF
8D
78
17
EE
F8
E2
8D
B7
3E
5C
8C
F0
82
63
FA
65
EF
41
87
51
2E
A3
AF
6A
D0
D6
92
B6
FC
73
F5
09
6B
8D
78
E3
EF
85
1A
AE
59
50
4A
08
73
79
F2
C4
CF
04
FA
4C
F7
70
D5
E2
7D
CD
45
EC
D3
DF
1A
B5
85
B8
99
0E
D0
63
07
AA
33
D1
32
27
CA
A4
6B
19
29
E5
E5
A0
D5
3B
03
D2
88
C8
3F
DB
28
D9
10
2D
12
2A
BC
62
0D
43
8C
C0
94
3E
67
DE
63
52
77
0C
B8
DD
2C
0D
98
AF
60
A0
F8
1F
FC
A0
78
8C
4D
0A
36
89
ED
C3
4C
F9
04
60
B8
EB
BE
9B
BE
B6
27
F6
13
D3
83
2B
03
63
4B
7B
02
C7
9B
FB
D4
68
85
8A
72
F2
CE
3E
6C
52
1F
A4
BD
5D
BF
FB
93
66
71
26
B9
75
D1
3C
58
9D
37
DB
E4
52
56
38
3B
5B
43
2D
CE
91
EB
BA
63
8A
DE
A0
68
1D
1C
7B
03
0D
22
3C
02
73
F9
DB
90
B0
36
F5
83
0C
AD
3E
E7
70
EB
35
81
56
6F
64
61
CD
85
49
6A
21
44
ED
AE
E6
AA
31
DA
23
8C
EA
53
42
5F
56
CE
8D
14
35
7D
7F
EB
7F
56
DA
63
37
28
68
00
12
09
C4
80
38
2B
AA
E9
85
4D
F5
EF
20
B7
CF
F7
05
DC
8B
BA
D9
8B
25
D8
61
80
BC
18
28
A4
98
BA
2E
C4
FC
52
FB
4B
C9
80
A7
D4
BA
00
DF
60
59
C0
60
95
58
08
B9
70
42
67
CD
7D
CD
D4
E1
9C
E1
13
E0
5D
E5
5B
28
2E
5B
4F
82
96
CF
E2
76
A8
22
56
BD
FB
DE
F7
EB
A0
DE
38
9D
2C
8D
FF
48
EE
92
A9
CB
F7
84
73
A5
60
42
A7
76
91
09
6C
BA
AC
42
F7
27
A0
6E
92
C0
CD
4B
DE
79
58
5D
41
C6
6F
6A
11
E6
6F
04
0B
4F
C6
32
45
D7
BC
31
11
E8
F3
89
8F
13
77
A1
53
C4
6C
B1
BD
44
8E
7F
8A
7D
69
1B
E3
58
9F
6E
27
E5
21
EC
3D
5D
9D
CE
C5
10
D7
D4
A3
CF
F5
77
13
E2
A8
51
A6
B7
50
B1
B4
39
4C
18
12
6C
06
B9
D1
A7
26
8E
84
43
DD
C9
D4
34
1D
F7
83
93
EE
17
F5
17
E8
1B
4E
B8
4C
82
71
19
1A
03
05
A1
3D
56
C8
E3
65
CD
A6
C2
16
FA
76
B4
72
7A
C7
E0
11
3C
77
79
D7
45
B1
A4
48
A2
3D
E2
26
C2
03
E3
98
4C
46
7D
99
6C
BF
2F
E7
B6
63
D9
B0
AA
39
41
66
31
3A
BE
F6
6B
E2
BE
8D
9F
21
33
E1
A4
96
F9
6C
1C
09
9C
47
C2
5D
2D
73
17
6B
EA
02
CD
28
10
EC
C9
C3
4D
EE
DA
C7
DE
B6
3E
E8
7F
F4
A1
AF
E1
3D
38
FD
04
7B
DB
B2
6E
72
9D
D8
F5
EB
81
85
57
CA
C8
25
38
22
6C
97
59
2A
FF
58
9E
20
88
FF
DD
40
7D
62
3B
D8
94
2A
CA
B1
82
3F
1C
83
44
F4
CE
8D
99
86
2F
85
9D
08
2F
1C
E1
4D
BC
E9
CD
1A
A9
CA
FC
65
22
10
0F
6C
41
11
2C
DE
15
F0
52
63
FD
6B
69
AD
70
87
35
1F
23
96
EC
60
FF
39
FA
29
83
76
0E
25
06
9D
12
C7
2E
BE
25
C3
2E
F7
A6
AC
E2
90
D9
D2
97
8E
71
3A
A5
DE
1A
24
97
94
CD
9B
8A
5B
40
10
78
D2
58
27
10
FD
6A
BF
75
91
EB
D7
A1
44
2A
B8
52
1B
72
77
79
0D
1C
91
21
69
AC
2C
45
6C
BC
3D
BF
94
E4
4F
12
CF
8E
07
E0
F9
5E
01
BD
08
39
90
A4
2B
87
9D
B8
23
AE
5A
0D
DA
06
D2
C7
42
8F
06
57
F4
D5
E9
43
E4
70
A3
5D
4E
24
9B
D7
DD
AB
FB
88
B2
18
C1
56
47
9B
E3
A1
21
35
E8
E3
13
9E
05
E2
42
20
39
9F
4B
B4
A8
7E
4C
E9
54
13
04
B7
35
A5
6C
9D
08
30
8C
43
69
D0
E6
64
78
7A
83
FD
DC
45
9E
95
65
69
C9
8D
67
95
F6
3B
29
7A
72
DE
9F
5E
FB
27
0F
07
EA
F8
57
51
DC
4F
4B
DF
CD
A7
A5
EB
BC
8A
D4
05
97
BC
1A
0D
77
C3
07
6A
21
26
48
9D
CD
D7
24
38
4F
FC
09
AC
CB
D4
0B
18
FB
30
83
37
3A
D8
BC
51
14
56
DE
0B
9A
65
F5
3B
0B
BE
58
59
15
FD
11
E5
79
9A
11
C4
EE
9C
5D
69
4D
60
20
07
B8
5C
D9
4C
32
37
D8
4C
1D
4D
08
A8
8B
E0
81
21
5D
12
86
56
2C
17
9B
9A
33
78
83
00
58
23
88
91
FF
E1
5D
B2
98
B5
7E
35
83
06
5E
8E
67
5F
2F
44
F2
35
1B
9E
CC
36
B9
80
2E
BC
00
06
60
08
17
DF
69
F5
11
82
2A
10
37
2D
96
15
3C
7D
F5
EB
42
67
A1
DD
85
ED
93
BE
ED
41
FB
6E
C7
DB
F6
5F
3A
E0
D4
CC
E2
7E
5C
99
2C
72
2F
E8
70
A4
53
32
8B
74
8F
90
E2
A2
CF
4F
63
4A
3D
AA
A5
B4
8F
88
7A
3E
F0
6A
62
C3
1C
6D
B8
2B
7E
1A
4D
CD
E9
30
97
A7
5A
BC
DB
64
9B
6F
C1
C7
65
1D
CE
74
25
C8
33
95
B2
15
D9
4E
03
11
F9
01
AB
C6
4E
14
76
65
3B
51
A1
96
35
BC
85
76
03
6A
14
52
5F
B9
9A
12
CF
CD
A7
28
9B
2A
B9
15
AB
E4
5B
79
78
52
5E
34
23
7F
4A
D8
BC
50
CE
3F
3A
62
11
19
9C
2C
AB
EB
79
D3
93
94
7D
CC
29
A9
30
05
A2
28
D7
81
DC
7A
80
A7
D2
BC
77
20
7C
31
03
0D
CB
1F
B9
F6
8A
B2
49
9D
C7
47
E9
70
70
99
F5
92
41
4C
93
9E
46
94
C5
98
D0
BC
39
CC
6D
BC
5A
B8
5B
93
2F
65
C6
F8
82
0D
BF
EB
FD
AF
04
73
C2
C5
3F
D5
E3
06
E9
28
1E
3A
64
D7
86
52
13
60
8A
EE
74
39
D3
BA
B2
D5
47
F1
40
C4
21
C4
B7
63
0A
77
B8
6D
FD
22
16
9B
DC
FA
F3
E2
CC
86
C3
D7
F5
B7
90
48
F1
C2
9E
B8
34
5E
FC
D5
A3
34
B8
2D
2B
F0
1A
A8
92
B0
C3
EE
2B
36
51
77
3D
94
CE
B2
CB
DF
7A
3C
21
98
47
4F
D3
E1
77
E5
12
BB
54
BD
71
25
B4
2E
39
03
60
84
62
5B
40
03
73
34
59
6A
A4
03
84
C9
E6
4B
98
39
AD
90
9E
3F
CB
72
7C
BC
17
B0
6B
D0
33
4B
D4
15
26
94
99
1A
48
72
04
6D
F5
09
B6
5B
D4
CE
14
01
DE
33
C0
29
25
BC
66
BD
ED
51
0D
A0
1C
62
36
C3
76
4F
5D
3F
41
E1
2C
B6
6A
62
92
BF
B0
26
40
0F
D9
81
B8
7F
BD
9E
BC
2A
6F
49
4B
0C
2B
01
4F
22
D0
2C
E1
91
8D
8D
C7
78
6F
D9
B7
9F
80
77
2E
D9
78
67
D8
B6
85
14
60
75
DE
2B
01
89
AC
D0
2B
FC
7C
8C
0D
89
99
55
81
88
AE
B8
A8
AE
B0
56
08
A8
3D
60
DE
43
F5
BF
38
53
6A
B9
5C
97
09
08
13
05
14
A1
0E
2E
76
10
36
A4
48
5E
D3
78
35
5B
A1
F2
3B
FF
B5
B0
3E
6D
83
29
A6
60
40
2F
E8
D3
B4
7C
F4
43
2A
EA
D3
E1
0F
9B
BF
62
94
74
3D
B5
E7
F8
34
1C
29
F3
0A
2C
9C
30
0C
5C
E0
74
AF
14
71
24
D7
1B
8E
2A
7C
1D
46
BC
FF
5A
B0
BC
8F
17
EE
17
AE
4E
0B
DE
E3
FC
82
3A
98
90
E5
94
2E
AB
D0
AD
85
01
EA
94
98
9F
57
CC
FD
8E
8A
07
E0
F9
9E
0F
C7
2A
6D
2A
A6
6F
E5
BE
7F
4A
D3
2D
75
23
5B
7A
A4
C5
8E
BD
E4
65
09
61
73
14
E8
D4
8D
07
63
D4
B1
50
7F
D7
3F
E4
16
3E
AE
69
EC
A3
0C
C7
9D
31
0C
AB
6E
70
90
F7
51
84
8B
B9
D8
98
40
BB
ED
71
8B
EC
C9
4A
50
5F
08
7E
48
74
A1
D4
BB
BE
85
47
E9
73
37
F9
EB
08
FD
F6
42
55
0F
02
90
7C
F4
9B
E8
3D
65
B8
1C
EE
B6
E4
E2
D7
38
1E
15
3E
E5
7E
31
9D
F7
9C
25
75
13
E7
4A
A2
6A
5B
9E
DE
76
06
9B
5C
3E
37
CA
74
9B
2C
CB
53
CA
60
11
30
5E
C3
4D
D5
DF
F2
CA
72
5A
95
94
44
70
B2
A2
66
38
BD
42
F6
74
8C
EA
8F
39
35
62
83
15
F4
33
F3
37
00
49
96
73
93
89
4D
A8
9D
11
98
D0
33
7F
88
70
41
FF
64
4E
69
73
07
1F
55
0A
B4
C9
BE
28
80
3E
F1
97
31
04
A0
FE
2D
BD
8F
45
0D
42
44
16
32
