24
CC
E1
E9
37
73
D2
61
4A
37
C7
B9
BB
46
A1
62
39
A3
93
87
55
27
D0
31
46
4A
31
EA
C1
CD
D8
65
1A
39
CE
D1
2C
20
B2
F7
D7
F9
30
13
BF
51
F5
79
74
08
80
4A
AF
D1
FB
75
9B
AC
DF
DC
FA
38
C1
94
F1
0F
E5
9E
AF
17
15
06
90
C5
99
D0
96
0E
C9
8A
97
C9
54
C6
1A
CF
BC
35
FC
1B
91
76
D3
D2
8A
45
61
EF
63
90
86
F8
17
96
3D
30
E6
53
BF
2F
5D
D6
79
32
1C
13
81
58
C9
FD
F4
DA
F3
47
2D
FD
0C
0E
6C
EF
1F
72
67
B6
89
24
66
EF
F7
A5
9F
D5
FB
98
87
98
2B
88
70
74
06
E4
CF
79
AC
7C
F7
38
0A
E3
A8
A9
D6
8F
DF
DF
34
C6
4E
AB
EB
6D
00
67
85
07
7F
31
10
6F
25
96
D4
74
8F
00
70
06
B8
FB
6A
E0
24
C0
F0
84
1F
A4
CA
ED
CF
35
DB
50
1C
E0
D7
1B
91
67
0B
37
7D
5F
2B
8D
DF
1C
13
17
97
FD
78
3B
3D
E8
3F
DC
0C
89
4A
5B
3F
A5
2B
DB
05
83
77
17
6A
02
CE
68
E1
79
75
40
15
08
D7
2C
86
CF
E8
43
37
A7
A0
C3
B1
6A
9F
70
8F
4A
CB
14
4D
C2
AB
38
44
F9
20
A5
F3
15
65
88
9D
BD
35
A3
0C
9D
67
C4
C4
87
07
F5
71
26
E5
80
F1
31
14
BE
73
40
76
38
B9
16
5D
2C
AB
43
35
C9
80
EA
EC
0C
07
D3
50
4B
DA
D8
C1
CB
7E
26
CB
EF
D7
60
2E
CB
20
24
83
59
BB
60
06
E6
23
BB
2F
23
25
9C
B0
AC
EF
80
77
4A
D8
B8
95
D7
5F
E1
46
B6
C1
F4
01
61
99
04
3A
D4
E5
C0
3A
88
FB
EA
2C
A0
06
5C
CC
75
5C
C4
3F
B5
FC
55
0C
DB
B6
D2
12
F7
47
93
D8
60
18
92
B4
7D
D3
6E
85
4E
D8
31
6F
5E
0D
BB
54
EA
FF
13
1F
7C
E8
AB
D7
1E
FD
69
95
C4
7D
ED
A4
15
00
D8
12
53
C7
17
21
1F
C9
10
FE
56
4C
D2
C0
CB
65
5F
C7
CE
8A
1F
6C
08
08
82
4C
05
EF
71
9A
6F
C9
2C
42
10
C4
E4
B0
0D
74
2E
E3
40
80
24
8C
65
03
D3
B3
0E
72
A0
96
FB
A2
62
80
11
53
9B
01
9D
47
C3
2D
8B
27
5D
18
1C
0B
7C
DC
0B
20
E8
F1
A3
3C
24
31
2E
44
47
A9
66
2A
AA
F8
FD
C5
79
1A
8C
BC
C8
98
64
A5
30
00
31
2C
5C
BC
CC
C5
2D
F0
81
D2
A1
2F
96
69
59
7D
13
83
F5
90
C8
EE
2B
D4
2A
73
EC
0E
98
9D
8E
49
49
6B
86
96
B0
33
06
B1
85
27
60
9C
10
39
99
A3
3C
0E
B4
84
7C
5F
D9
26
52
45
B5
6A
62
C3
34
2C
AE
3A
42
DE
ED
C8
0F
F3
6F
F0
0F
00
A9
28
23
66
B6
57
6A
B2
36
C3
58
08
89
8D
F3
6B
D1
A7
17
FF
61
D9
5E
CE
21
ED
41
11
5D
D0
91
87
78
34
6D
AE
0C
57
E0
C2
9B
B9
4B
A4
C6
BE
8F
17
E5
27
97
C6
80
75
14
22
E2
D6
B3
C0
26
C4
C7
1F
78
B4
4D
04
8B
AE
47
A6
E7
12
CA
2D
50
DA
C5
B5
81
DC
FB
81
D1
8F
23
33
E5
56
73
8C
9A
BA
2B
93
EE
F8
17
FA
26
DE
20
8D
70
6B
3B
40
C5
80
75
C6
DC
F0
C7
2D
00
6B
E0
65
41
D4
71
5C
0E
1C
6F
7D
95
06
F7
3B
65
97
49
55
82
04
16
C7
04
0B
0D
60
7C
55
0D
FC
40
6D
E1
01
C1
D3
DD
50
6F
CC
4D
84
53
C4
40
38
DB
09
0D
DE
8D
A3
25
11
2F
B3
F1
2B
88
7E
A7
48
6B
08
C9
AD
5B
27
7D
4B
73
4A
4F
46
8E
0F
FE
E9
98
8C
47
A5
AF
ED
36
5E
20
A7
09
28
A5
30
F0
91
B9
39
BE
94
E0
BB
5F
D4
85
2F
9A
93
BE
19
FC
D7
25
C4
FC
54
31
B3
33
D1
DA
BC
79
00
6D
E9
11
A6
A2
4F
BA
03
8A
9A
57
8F
49
71
A2
87
0A
1E
DE
AF
62
5B
84
13
8E
37
64
E8
73
5D
68
60
C6
F9
86
E9
C8
C1
6C
D2
DB
43
E1
A4
34
03
AB
BF
A2
0A
EE
84
E5
F2
18
F3
A9
FC
5B
9D
DA
44
7D
20
BD
84
89
06
C5
75
58
20
38
BA
44
ED
3D
6F
2C
5F
F9
9A
64
5E
0D
FC
D1
36
78
AD
53
D2
71
51
73
AE
55
7C
34
9A
72
0D
3A
2A
47
FE
97
04
ED
43
E4
67
5E
C8
45
EB
44
97
A1
3C
C4
75
8F
B5
46
82
E3
1B
7E
98
35
70
25
EF
1B
EC
6D
32
70
DA
F6
D4
C1
D4
1C
87
3F
E0
9E
60
9D
E2
55
AC
17
1B
AE
7A
B6
AC
92
6B
9D
37
DA
38
A3
C7
EA
94
22
60
E8
63
B4
85
6A
73
E5
88
54
02
EA
29
2E
81
C5
5C
7C
FB
89
8E
E7
A6
46
41
5E
69
89
C8
7D
2B
A9
E6
0E
DD
EB
F9
D1
50
01
A5
D3
6C
4E
81
6D
93
5E
69
0F
67
78
76
8D
3E
37
6B
27
40
B3
25
EB
DC
8B
7A
3A
F6
F3
8B
C6
74
B0
19
60
7E
1B
4E
92
F9
37
21
E0
2F
17
ED
ED
CE
D8
95
8F
0B
3A
FA
68
45
F4
22
BB
67
2D
01
5C
5D
9B
3C
5B
36
0A
6D
AF
C2
0E
0F
71
A5
7C
DF
F4
D4
F4
03
5F
AE
7D
47
73
F2
E9
AE
D9
96
2F
B5
73
4A
72
4F
00
FC
3C
2F
3E
CB
BE
30
F0
BA
8F
64
0E
03
E7
EE
31
E5
B5
24
57
1F
52
B0
35
01
E6
29
CC
D8
F8
4C
54
B4
FC
13
FF
3A
C3
70
75
D2
54
03
55
BC
71
06
21
A7
AA
F8
46
7C
28
FB
FD
8E
A4
49
E6
1C
16
BB
51
92
4E
D0
4C
91
C0
41
E3
95
C5
B8
D1
B6
3E
72
DD
68
EA
A3
64
92
1F
E1
A1
43
AB
07
E0
41
42
B1
53
10
01
1F
21
42
E1
84
57
26
BC
A8
5C
7A
9A
BA
62
04
DD
46
16
7C
A8
37
40
D3
BF
A0
94
81
D1
67
12
52
06
B3
14
67
B8
EB
0D
F4
13
EA
EF
2D
24
D1
B1
81
98
48
7E
C0
FF
3E
13
3E
5E
27
40
AF
0E
D2
81
94
05
16
7C
3D
81
09
B2
15
73
21
C2
17
72
F4
19
8A
BC
17
CA
3B
D5
5D
FA
B3
04
BA
E2
92
0C
E3
A7
91
79
A3
4F
7B
2C
81
10
20
22
52
B7
14
C6
50
1F
02
E7
69
BE
3C
47
38
6F
CB
72
D1
DE
FE
35
05
0F
2E
28
DE
29
D4
DF
B9
74
81
8C
AC
16
D2
7C
B5
55
E4
9E
93
A0
65
4B
90
B1
3D
E1
0F
BB
96
94
4A
45
3C
A9
EE
90
08
28
85
0A
34
B1
A0
86
AD
D5
5B
11
F3
6E
32
D9
39
42
0A
F6
A3
99
31
BA
AD
FC
7F
69
25
ED
79
AD
95
7E
37
49
AF
57
50
DD
AC
2B
6E
20
1A
20
79
D3
E2
03
4A
06
1C
FB
40
49
77
3F
32
1C
AC
2B
4A
C2
2A
01
8B
59
D9
5B
B6
05
07
A5
A5
A1
45
9E
F4
A8
21
BE
2E
BD
3A
EE
86
31
AD
38
CE
D9
E4
98
1B
8E
19
27
67
72
02
9E
F8
89
C3
1D
AA
88
3C
1F
B0
DD
5D
5E
1B
17
CC
21
C9
F9
DA
17
53
3E
2F
EE
4C
C8
95
33
BB
18
51
33
21
94
D0
4C
9D
8C
EB
CD
EA
C8
AC
85
60
F8
26
A9
72
80
40
45
3E
EF
B3
0A
37
C9
BE
72
61
8F
25
02
A4
76
CE
C1
82
39
0E
EC
82
3A
F1
62
B3
98
8B
A5
98
4B
6A
57
BA
9D
E1
71
E6
1F
64
C7
2F
09
4A
53
FF
98
94
02
52
22
6E
54
DD
E0
36
10
F8
41
35
10
0C
1F
E7
46
3C
49
37
A3
E8
1B
EA
97
A5
B4
6A
24
CD
7E
A6
9F
21
95
73
7E
F5
29
0E
6D
EA
C3
FD
76
62
65
3C
1E
2E
F3
41
96
8F
AC
AE
B4
E0
98
58
2D
97
7F
4C
38
94
3F
36
09
E8
C4
F6
52
07
73
48
E9
58
04
87
06
78
49
1D
87
75
4B
BB
D5
63
93
83
7A
92
4F
32
A6
0F
E8
2F
77
2C
A5
4A
B3
99
12
1C
71
97
24
F8
8F
ED
95
96
E2
60
D1
37
43
E4
3A
3E
F7
0A
F0
1D
99
59
CD
90
05
F2
5A
39
0B
ED
D5
FD
04
79
75
13
E6
8A
29
48
6A
7A
00
2D
DE
BA
EB
55
44
5C
F3
5D
35
40
6E
BA
B2
48
73
3E
B5
C9
BB
39
C2
B0
CC
29
BA
75
F1
A4
6F
71
51
CE
AC
BD
A3
70
99
16
4E
4E
D6
3C
88
09
04
7C
C7
3A
C5
02
F3
07
32
40
B0
6C
35
22
90
25
13
61
73
3F
9E
96
30
B7
2D
FE
85
83
BA
8E
0C
3E
8A
53
F8
CF
D5
6C
56
87
2C
87
73
E1
29
83
86
BC
65
79
7C
83
90
2C
BB
3D
AA
C0
40
E4
CE
CD
A2
D8
A0
1B
27
F6
07
FE
FD
B3
05
F1
14
AE
F4
1B
EA
D9
14
E6
DD
24
92
18
E1
BC
58
A2
20
A7
EF
43
FF
0F
DE
A7
85
65
25
03
98
AA
74
2C
D8
E8
C7
42
42
5C
A9
9F
00
BB
37
62
F8
0F
84
98
36
F3
5B
B6
82
B9
DD
88
9E
82
0B
B6
AC
FF
63
04
67
AA
C6
29
86
EF
48
07
2B
FF
E9
A3
8F
ED
BB
45
60
97
7B
62
D0
D8
6A
EF
DA
F5
25
06
74
08
8A
5C
33
D1
05
39
40
CE
C0
EB
4D
29
0E
5C
96
4A
22
76
61
1D
59
B1
76
43
20
D0
B9
C6
57
AD
4E
61
89
01
B2
0F
BB
73
5D
FB
DE
2A
A5
6D
07
BB
37
A9
B2
18
46
8B
49
3C
4E
EA
8D
87
30
64
B5
FE
45
BE
80
78
4D
BB
6B
2A
36
C9
D5
5B
B6
5C
97
6D
85
C9
05
4B
D4
CF
08
A2
39
15
AA
E9
F9
DF
67
BE
1D
67
B6
EB
A2
A1
95
59
EB
EA
34
21
C6
4B
0F
CB
94
94
97
E8
E3
1F
0B
9C
B4
35
05
2D
94
ED
6B
31
D4
A2
9C
F7
C3
B2
D0
2E
1C
84
D0
63
50
5F
AE
64
73
C5
CD
D7
64
58
F3
98
0D
79
45
21
E6
31
D2
3A
53
EF
B1
96
21
01
45
BD
06
95
A0
D6
74
CF
BA
67
14
07
BE
F9
DF
32
11
6C
2B
D7
0D
91
88
60
4B
5B
CF
7D
71
70
FE
36
AD
84
4B
CE
DA
3F
1D
15
27
B1
9C
65
2A
FC
17
BC
E8
C2
13
76
D3
1B
56
9F
F6
A5
9C
E7
95
1A
9E
C2
1F
69
10
79
29
AD
0E
D0
DF
2B
B5
89
A7
4D
C5
0F
8F
58
05
E3
F3
DB
02
69
00
1E
D1
15
B8
EF
58
57
D8
E8
51
81
16
DF
D1
75
8A
07
7E
B1
D4
C4
41
E3
9C
C6
46
10
22
C8
F9
A2
66
4A
38
9F
B9
10
76
12
78
47
13
0E
A7
65
03
B1
EC
02
E3
40
46
A4
A3
62
EA
6A
F2
8C
B2
6C
AF
99
36
67
B8
70
F7
AE
02
EF
76
95
7E
9D
7A
01
CE
E6
83
31
A6
49
55
CA
2C
C0
B4
9E
CC
E6
8A
FB
FF
41
E2
37
31
59
66
B3
C9
5C
C8
C7
79
C3
48
C7
29
4C
79
50
15
4E
9A
C1
8E
CE
E0
DB
34
EA
56
B4
AB
B9
6B
5C
92
51
8F
DB
2D
D8
22
26
1B
EB
6E
C4
B7
67
94
4C
35
AE
8E
44
FC
EE
9F
B1
58
75
E5
84
AE
D0
60
C1
A2
70
1C
4F
C8
BF
F6
63
2A
E4
A7
61
CB
BC
2D
80
EA
3B
44
67
A9
63
98
82
59
FD
86
87
4D
66
C8
6F
56
65
3F
9E
A4
B5
81
4E
19
A9
2F
64
E5
DC
64
4F
98
29
36
C1
0C
4E
C3
E5
CB
C9
ED
99
B0
35
88
86
1A
47
A5
3E
7C
A6
0C
15
CF
BB
F9
34
18
DE
04
30
87
BA
71
13
89
B5
79
D4
FE
E6
ED
2E
9B
F6
35
36
BD
5A
F4
BA
80
81
4F
D0
BC
C9
84
54
27
08
04
2E
43
F6
C1
4C
2B
BA
A0
A9
20
0E
58
3C
84
0D
F2
C1
E7
66
FB
E7
67
CB
37
A4
14
3C
78
BB
C4
FD
69
87
73
AA
53
1E
E5
74
47
85
02
1F
41
06
AC
B3
47
13
9A
C3
7B
81
0E
32
A5
A2
EE
9E
DD
33
1B
C6
3A
0E
F0
0E
AC
55
02
73
5B
84
13
1C
0A
3F
50
D1
D3
6A
14
CE
6B
A2
80
91
C4
EF
AF
21
A2
4A
67
5C
D8
D8
EA
04
AD
6C
F7
88
70
8A
25
FA
4A
F5
4C
9D
DF
E0
EB
CA
03
EB
DB
47
5A
0A
E9
7C
D4
D0
59
2C
28
C3
B0
56
B0
28
5E
A0
32
03
1B
FC
78
E7
19
D7
47
84
22
CA
F0
7D
92
CA
08
FB
C7
5C
4B
A0
09
F4
E3
39
CA
13
E1
A8
34
94
2C
CF
10
24
36
AA
7C
FD
AE
1E
48
1E
1B
5A
69
A3
D5
B0
80
A0
D0
09
14
33
C2
5E
C7
24
87
7B
38
33
CA
C8
D7
80
F2
D3
FD
21
71
C5
BF
0D
9F
A8
30
F4
D8
30
15
28
B9
A9
DC
FC
88
23
A0
8F
1E
58
42
68
A0
99
68
13
ED
E5
B4
DE
2B
F3
6B
4A
1C
1C
BF
74
CC
54
1D
06
7D
79
82
85
1C
A2
94
BA
7A
56
A2
9A
70
8A
2D
DD
EF
61
3B
9A
D5
27
65
71
C3
A4
65
0F
78
02
95
75
FB
97
7B
97
B9
8F
D1
B3
66
F3
CE
56
FD
7B
B3
6D
5D
6E
87
B2
15
6C
A3
58
90
88
E8
88
0B
FD
7E
86
15
79
9E
4E
88
EF
82
6E
63
D0
44
E0
CB
77
CD
A8
66
D5
DA
FB
C1
FD
D4
D2
06
3C
DA
91
B9
D8
97
4E
D1
B5
1D
DA
25
1F
C8
08
6F
8D
68
BA
84
B6
E3
6A
0B
3D
E6
4C
BB
3A
9E
41
F6
F9
52
2F
51
69
FE
A3
9F
9B
FD
44
3A
45
CC
29
52
B4
63
57
EA
C6
41
75
84
A7
42
BF
61
60
80
D7
D9
52
87
AB
3B
05
CE
5A
20
4B
1E
DA
10
6A
83
E3
9F
66
BA
09
AD
7B
FF
B1
A3
C1
F0
84
A1
F0
DC
FB
C2
E3
26
7D
68
74
58
08
3F
F6
62
CF
E1
65
32
00
4B
6C
89
78
68
08
A9
8B
49
19
8F
6B
89
EB
E6
CB
4E
8C
C9
36
80
A1
BE
3F
17
A0
8E
78
85
41
F8
51
2D
02
49
15
8A
73
20
54
0C
30
3F
16
9B
A5
61
6A
B1
AA
20
B1
CB
5F
70
63
7F
7E
5B
85
3F
D4
56
ED
56
1F
82
60
12
23
34
9F
D3
F3
35
EE
18
16
D8
49
41
79
7A
8C
58
6A
6F
57
69
4B
5C
28
9F
32
95
75
D2
98
55
64
3B
0A
83
8E
7D
38
FC
16
CF
55
DF
90
4E
DA
9C
26
C4
8C
FD
AD
57
DA
56
76
8C
6B
6B
DE
83
40
C3
3E
CA
C6
4C
C8
7F
C9
5E
CE
9E
BD
DE
6C
17
FA
12
5C
06
8F
89
DD
E9
5F
D3
F6
4B
BE
54
4E
7F
97
0D
C9
DE
D9
11
DD
22
EF
2B
40
2D
89
2C
C4
03
BE
A0
8A
CE
AA
E7
37
89
3B
AD
54
79
82
23
78
99
B0
C2
F7
09
53
54
AC
C3
FF
6C
70
08
19
B4
8C
57
D5
96
A5
FF
FD
5D
08
B8
8A
DD
B2
8C
80
AA
A6
B0
EC
1D
39
C0
F2
65
03
71
52
F3
FA
EB
27
06
C2
7C
1C
E8
FB
99
C5
84
D2
CF
E1
04
DC
E1
2E
02
11
9B
9F
CA
DB
11
B0
5E
03
82
D1
7D
ED
78
03
2F
75
9F
97
F0
B8
DC
F4
0A
2C
55
8E
88
B6
3D
0A
47
58
29
92
B3
BB
C2
91
3E
C4
E2
3B
31
DA
BE
E0
CF
DD
F8
40
15
54
B4
A0
00
8A
AE
08
C0
6B
92
88
43
3C
9A
76
77
DC
87
35
20
E9
F0
D1
44
2E
31
93
8B
A9
53
20
7E
88
40
FE
92
6F
87
D2
5A
99
DA
1E
55
F4
14
4C
50
1C
01
F0
85
71
41
49
1F
F3
5D
2A
1C
30
CB
1A
38
8B
99
4A
7A
A0
9D
55
B9
F7
F3
8F
6C
87
5B
3C
23
DD
AD
29
CE
6E
F2
6E
E1
CF
18
7E
80
63
18
38
6F
31
03
69
51
20
3E
8B
97
B1
9A
83
B9
75
40
5C
D2
6D
05
21
5B
78
0F
BD
C7
A7
BB
C7
8B
53
80
7A
05
03
63
D6
A3
22
E1
BA
53
FB
BE
8C
F1
7E
69
43
6B
EE
E4
46
E6
73
83
2E
9B
BE
75
A6
92
75
A0
17
F8
83
6D
1B
25
CF
56
F9
4A
94
05
BB
92
EE
7F
7D
5D
E3
43
C3
D7
47
71
F2
85
67
18
97
5C
38
2E
D5
3B
1C
70
E1
6B
46
5A
35
5A
DF
71
6C
4E
70
69
2B
D3
2D
6E
2A
F4
60
9C
F9
47
34
11
23
EC
BF
78
A8
5B
69
09
46
2F
E3
FC
0A
42
ED
F6
10
DD
E0
BB
30
8D
AA
DB
01
8A
F7
7A
51
AC
0B
F4
18
4B
ED
40
26
D6
C9
ED
85
2C
69
0F
EF
D6
86
7F
33
E6
BB
E3
F3
E5
3E
74
EF
B6
6E
C0
E2
FA
34
7A
C5
A1
3B
6B
F7
84
D8
FD
31
C1
8C
A0
17
92
9F
CA
F8
DA
2E
6B
3F
EC
5F
AE
22
4E
EE
84
C8
A3
7F
0D
C4
3A
F8
3C
3E
51
B9
EF
92
C5
0F
2A
D8
2F
74
50
89
22
3C
49
8F
1B
77
31
E9
E6
36
31
09
35
BE
4D
EF
37
09
AD
08
42
1D
1A
88
AC
C4
E0
5B
B9
B0
65
5B
6C
2E
6A
08
25
1C
71
8B
D2
23
14
87
61
E2
F6
18
6B
23
A0
2E
C0
3B
36
ED
7F
96
C8
B8
C6
AD
94
B3
5B
7E
3B
01
1A
2C
0C
6C
CF
A1
73
B1
03
E9
49
EE
8D
6A
9C
CD
25
52
3A
24
68
83
5D
AF
B0
71
E2
8C
6F
9D
0D
0A
49
99
F6
99
BA
EA
CA
3D
53
93
AC
60
7D
C8
AE
22
9B
68
C7
83
6B
A4
B2
9C
95
14
A8
84
31
35
0E
FB
4E
85
14
89
EF
5E
46
C2
71
72
A3
6F
BB
D1
11
D6
B9
58
D9
A5
7C
0C
C1
91
A0
E9
96
52
9E
24
CD
6C
29
61
75
98
3F
3C
DB
30
2E
FE
1F
69
4F
B1
BF
88
89
19
AD
86
A5
EE
97
C5
57
AD
97
75
52
E4
62
FB
C5
57
14
84
13
6F
35
C2
ED
D4
AB
BC
05
EB
C4
0F
84
F2
15
A9
60
2C
EE
38
5A
06
2D
2C
6A
0F
A7
B0
E7
3B
B4
7A
2A
69
BC
97
BE
E8
D3
43
53
18
D2
57
8A
67
80
6A
14
EE
22
EE
74
D0
9A
5F
5F
C1
8F
C6
7D
C3
C1
27
AD
FD
3F
EB
65
92
AE
38
2A
01
0F
34
E8
0F
1F
7C
7E
C1
EA
72
11
04
51
F1
46
60
37
43
A4
78
EA
D1
F6
A9
3C
DB
BC
6A
94
66
EB
23
1B
54
B3
BA
50
B1
FB
BB
A3
8D
3F
75
FE
05
55
B5
C8
79
AE
33
CA
24
5C
86
7F
98
71
93
7F
DC
37
1A
B0
6A
54
81
9B
CF
BC
BE
DC
7B
B3
5A
01
89
90
49
82
BE
FC
CD
62
D9
D3
61
F1
C4
75
F0
21
2C
8A
51
16
5E
52
31
AE
8E
6F
0A
8A
A3
E5
0B
AC
F5
D4
AE
33
51
FB
15
AA
4F
F6
1B
93
EB
8C
34
97
96
06
2D
75
D8
DE
A3
E7
CE
2D
F1
F1
92
7C
1D
07
D0
4B
BA
A1
C7
4F
CB
96
C6
67
A9
31
73
5E
49
89
E4
F6
7E
3C
55
A1
A3
A3
4F
14
14
61
10
B1
E9
61
7C
23
82
C3
F3
CE
D9
39
B5
03
EA
A8
E1
B3
B1
45
2A
B0
01
FF
D1
25
22
A0
B9
B6
82
4A
E7
EB
2B
E3
8E
2D
27
01
7B
80
BA
B0
03
25
D8
64
58
0A
29
02
3A
AB
81
8B
50
23
AC
89
59
AE
53
C0
19
FE
24
27
AC
CB
A9
A7
CB
E3
D8
4F
88
30
33
61
BA
DD
E3
74
08
E5
80
D8
88
AC
E1
62
DA
B5
A2
73
33
46
1A
5F
91
43
87
DD
A7
DF
AC
AF
8F
5F
90
CA
BC
F4
BE
44
59
BE
9C
61
EA
FE
43
44
33
66
37
E6
2C
D2
C6
3E
95
CD
9B
BC
2C
C7
EC
3B
A6
FC
85
E3
70
C4
A7
49
02
C4
2B
6D
42
EE
31
F5
D4
E9
5B
81
3B
A1
3F
50
EE
5A
8D
9A
A1
F9
56
C7
75
5B
2A
66
9F
52
2F
22
96
DA
0F
58
49
C0
CD
9D
29
A8
9E
E4
CA
5D
B5
38
37
C2
53
58
3B
29
A0
30
04
4A
16
24
1C
C6
C6
32
20
55
0A
E9
95
57
07
3F
80
25
A3
CA
03
D8
82
BA
1A
55
93
D5
FE
B3
86
83
7D
1C
27
1A
62
6D
CC
03
42
57
6C
57
2E
F3
16
2E
99
3A
78
1C
92
7B
56
2D
50
69
82
CF
9C
88
D2
9A
25
79
34
07
66
80
8A
28
57
77
FF
06
EA
96
B4
03
50
AD
9F
62
A8
76
0F
78
5F
12
C7
7C
1A
19
96
BF
12
4A
47
F8
4A
51
A0
22
48
20
A8
B3
36
DC
36
06
09
56
E8
31
4C
78
2A
2B
0A
71
27
A4
0B
3D
E4
9D
07
AB
16
D2
7C
36
74
45
D6
9C
78
8C
F8
2E
12
82
04
7B
33
D0
73
DD
7C
FD
CF
23
21
5A
E1
85
77
68
B0
0D
BA
AD
C4
AE
72
1A
CA
6A
27
43
18
B9
45
9D
B4
F8
ED
A7
56
E9
24
A5
8D
C6
7F
EE
CB
76
D6
FC
04
11
29
48
3F
1B
E2
8A
05
89
4D
9D
C3
12
BA
F7
8A
28
1F
60
91
C3
85
9E
09
84
0C
55
7B
63
D1
FF
F4
7A
C7
B3
15
29
BD
9A
33
8A
B7
76
1C
F2
ED
27
9A
8C
07
AB
D0
0D
CA
59
11
56
2E
0C
39
7F
8B
AD
79
D2
E1
0E
7C
1E
28
2F
29
60
25
C5
D2
92
6C
EC
9F
F4
17
EF
81
61
C8
12
38
77
9F
F1
76
AA
1F
70
FD
80
FE
F9
1E
A7
A8
C7
87
4D
0D
D9
5F
F9
45
7E
6D
DC
ED
6E
BE
36
01
76
2D
20
E7
23
4A
86
13
C7
86
92
40
25
B9
68
6C
C0
35
F9
19
15
73
DE
13
60
3A
81
4F
78
37
D0
6E
E4
70
D6
87
3A
DC
1B
82
E3
2D
42
88
66
2B
74
A6
E0
EE
3F
75
E1
9D
09
C1
57
0A
90
50
C1
E0
3E
25
D0
94
2C
8B
F1
C7
8D
54
74
4F
5C
5A
FA
50
80
5B
BE
3F
50
1F
5C
D9
61
34
63
71
04
A4
D2
C2
49
22
D7
F6
2D
48
3D
3A
1C
32
0A
F8
0C
84
C8
0D
5F
07
CC
30
A6
A9
89
87
5D
6D
79
E1
91
CB
23
5B
6D
7A
D1
1B
42
8E
D5
DE
40
5F
56
CD
64
9F
5A
43
26
A6
F3
4C
CF
FD
54
AC
EA
4D
0D
FB
98
B1
D6
85
AB
27
20
6E
36
76
CC
F6
55
A3
43
39
C2
1D
FD
68
44
70
34
93
ED
08
C0
57
D5
4D
D3
ED
7E
29
F3
AA
D1
93
98
87
89
E4
FD
5F
07
C1
18
49
5E
95
31
22
86
E6
36
F3
6E
76
CB
C4
43
1E
31
42
C7
A4
6C
18
B8
84
1F
C1
E8
9D
A0
70
DE
39
39
BC
4E
EB
5F
54
51
15
C8
3F
0B
13
83
CE
B1
35
90
F8
59
7C
91
91
80
30
D3
E9
4D
F3
D9
AB
AC
92
E8
7B
FD
C7
4F
CE
5C
97
8E
E7
2A
91
35
5B
46
46
D4
20
42
E5
31
43
95
84
AC
63
F8
05
8E
24
17
F6
1F
95
3D
EF
E3
19
06
F1
80
B1
03
36
8C
C9
FC
E0
69
BE
45
1B
81
5B
1F
AD
3E
97
32
4C
3C
CA
C3
DB
DF
80
4A
42
1A
D1
B4
1A
02
37
D0
0E
80
4C
6F
6A
8B
34
05
8C
0F
A4
BA
CD
BC
6C
9A
78
B6
DD
D3
15
DD
9E
D8
77
EF
0C
12
71
C3
62
FF
C3
2F
EE
AD
3A
A3
32
46
32
57
80
80
93
6D
9A
8B
A3
F7
DE
39
54
FC
91
4C
6B
1D
DE
5C
60
C0
DC
A3
6F
4A
D1
29
6D
83
F0
20
5A
F0
20
6D
DD
3A
78
01
B1
D7
BA
85
53
CB
51
3F
68
AF
1B
48
F0
77
6B
DF
42
BC
89
2F
C0
F9
CF
9A
69
6F
88
C7
29
80
48
5A
D7
82
60
AB
CD
31
6A
B5
61
05
7D
D1
FD
68
30
BF
A5
39
6E
E5
B2
BE
FF
9C
AD
07
E3
57
08
AB
31
5F
AD
11
8A
FA
C3
74
2F
A4
FA
2C
F5
77
14
A5
B6
39
5F
A4
9E
91
E2
1E
AD
10
A5
10
E7
2D
3B
98
0D
68
2A
17
E2
6D
0C
91
91
86
3D
06
7D
D2
2B
B3
8B
0A
D7
AA
1C
3A
48
49
CA
6D
DA
31
1B
95
49
A8
7E
F3
3F
E0
E0
CB
F2
F1
D1
AF
77
CE
01
23
01
0D
AD
59
37
49
13
FF
13
5D
EC
6D
0E
87
82
D7
AF
80
4B
6F
E1
AB
BA
53
1D
0C
82
14
5A
04
B7
DC
91
E5
B5
48
AE
48
C7
41
25
33
2E
B3
3B
31
0A
6A
31
D5
59
92
01
94
65
9E
20
68
32
FA
EC
6A
56
FD
CF
8B
C5
FD
53
0C
BF
F8
BF
6D
2B
7A
1E
B6
65
D0
0B
3E
E2
8C
52
C8
AA
F2
B0
5D
6D
1C
47
43
99
96
4F
DE
13
22
6A
52
9B
A9
40
46
A4
DE
7C
89
2E
08
47
91
14
1A
D9
3F
8C
09
1C
79
A5
E3
3D
BE
F9
0C
1C
8C
AE
06
5F
C9
2F
1F
90
53
7D
8C
5C
2C
14
24
3D
A9
BE
96
68
CA
1F
04
C4
44
67
81
82
E0
0D
1E
EC
3B
A4
CB
85
53
6A
95
27
68
A1
03
14
36
A7
D1
5F
E5
E7
47
30
86
CB
74
4A
B2
75
4C
12
02
EA
7E
BD
0E
CA
C2
E1
B4
D7
88
9C
F9
0C
30
AF
33
81
8E
99
E8
55
49
EE
A0
3D
B8
D2
32
84
64
B4
EE
62
F1
7C
AC
34
DE
E1
8B
E6
FD
04
72
AE
33
26
AF
41
3F
18
16
08
86
36
C5
BF
88
77
C3
6C
AB
32
4F
1C
2E
7B
D0
8C
DC
DC
F3
5A
60
E5
88
14
8B
B7
D5
4A
4F
6C
D2
56
22
17
95
2B
0E
D8
17
39
8A
E6
D6
39
E2
26
45
3E
82
B8
18
63
1E
20
F7
29
58
4C
F4
27
38
46
FD
DB
DE
12
86
6C
6B
1D
26
75
84
7C
2E
E6
22
F4
A4
25
2C
3D
08
CA
DD
7F
74
B5
4B
E8
5D
04
AE
DA
5F
0C
6D
65
F9
58
02
9F
4D
06
9B
FC
6C
3D
70
91
E2
1C
4E
6A
67
AB
69
5B
E1
35
C3
BE
B9
F1
18
98
7E
05
7D
F7
DD
FF
16
AB
86
31
27
72
EE
17
83
51
B3
51
3B
9A
7D
25
75
DE
DA
B8
1C
13
2A
B4
2B
28
3A
28
9F
97
A7
35
C2
AD
E6
69
A0
54
00
A3
25
34
75
E1
4E
72
86
44
D0
E0
7C
6C
73
26
A0
1E
CE
5A
C6
ED
72
ED
A2
B4
1B
08
9E
3B
DD
1E
5E
82
D2
53
E3
A1
45
E9
65
95
49
61
81
3C
08
A2
DA
56
7C
20
C4
6E
8E
E6
A3
29
6F
C1
E4
CC
5F
C2
CE
B2
96
32
D3
5B
9B
B8
71
65
99
72
21
21
94
7C
F8
91
1C
3C
7F
2A
A2
A2
D3
91
E3
37
DD
C3
7A
2C
F5
90
DE
48
6B
F9
80
5C
DE
99
4F
80
3B
63
7C
B3
74
18
6F
74
C3
91
96
16
A3
FA
CE
00
3D
C8
AC
B2
D8
0A
7A
C3
84
7A
A0
E2
93
6F
E2
4E
52
DE
81
47
77
70
3B
BA
82
51
50
A5
CB
9E
25
88
E6
52
BA
3E
DC
B4
82
E0
AE
A2
43
C2
91
A5
90
63
04
92
2A
FB
82
E5
35
84
B7
05
A9
02
24
4F
0B
8A
21
45
49
7D
7A
4B
DE
A8
6D
A1
EA
7E
C6
FB
61
4A
0D
0C
C5
0F
71
7A
14
A8
00
3D
2B
A4
0C
B6
AE
AD
7B
77
AB
75
42
09
9E
2F
2A
08
2D
70
83
0F
3B
10
9B
80
A0
8C
7B
34
B5
FB
F1
60
1F
7E
96
4D
AB
91
45
D6
87
07
5F
A5
B7
09
2D
64
FA
31
F3
B5
C1
0E
B5
E1
1B
B0
95
50
2B
07
30
CA
05
46
98
30
57
5D
87
5E
E4
66
83
1B
F0
31
00
6A
E2
73
9F
23
02
D4
85
9D
05
9A
6D
B0
21
1D
FB
A6
E3
13
57
BA
F0
5E
99
54
44
9C
F0
B4
4D
70
9E
AF
63
BD
53
E5
12
58
02
97
72
EF
C7
14
8C
42
3A
EF
D5
11
2A
45
EF
43
1A
B4
5F
8A
E8
2D
7A
07
5C
5D
44
2F
C3
D6
07
45
ED
FA
B5
35
8E
C1
F7
48
31
4D
DA
DB
12
49
9E
AC
7D
7D
B6
E6
2A
B0
6D
07
8E
31
B6
D1
88
3E
96
F5
B8
CB
AA
C6
0D
22
8E
BE
EF
E8
19
81
B2
37
AE
AF
34
E4
15
DF
15
02
66
23
B4
9C
74
BC
5A
8A
31
92
D6
5C
D8
63
FE
E7
A1
6D
4F
3A
6E
81
F1
9C
B1
A5
01
46
04
96
C9
EA
39
FD
07
2D
39
E1
37
EA
F4
8D
C6
4C
70
44
B3
91
31
83
4B
20
84
BC
3C
B5
E2
BD
7C
66
D3
C5
D1
8C
42
58
39
FB
B9
F1
65
2D
FE
AC
FA
EF
70
2D
00
22
30
CC
C2
35
08
7E
6A
6A
BC
66
51
0F
AB
A2
1C
6D
7A
D5
E8
B3
46
CE
61
C5
FA
DB
34
EA
88
B4
8C
39
00
CE
EE
89
CD
D8
73
09
BF
44
98
EA
66
34
D8
60
8A
40
94
50
8E
75
95
08
D0
49
73
D8
7E
7F
91
FE
CE
FF
07
1B
58
FB
A4
97
BF
BC
01
A6
71
59
86
7B
1A
9A
4B
28
8F
61
B1
DF
2A
A4
38
28
A3
49
A7
F1
C9
2E
8C
A1
A9
B0
B8
E9
ED
39
0F
DE
13
15
D9
AD
30
A4
55
3F
85
86
9F
30
AA
57
D8
CE
20
FF
3F
69
AE
4C
8A
D7
7C
C2
40
E9
7C
CF
47
0F
65
A0
3C
15
C5
11
D4
CA
18
F3
7A
42
CA
D3
90
6B
52
50
54
80
1C
5F
D8
18
A1
98
82
9D
E8
49
2C
CD
6A
E8
62
AF
7A
B6
F9
12
2A
F4
D4
74
47
E5
5F
19
B5
34
1A
51
13
72
E9
34
8A
EB
52
F2
B5
FE
3F
9F
67
21
CE
61
58
47
F3
02
BB
47
F6
82
AC
D6
1C
E1
8A
B6
B2
1D
A8
1C
D1
B2
87
A3
25
BC
22
E4
DB
09
86
29
EA
5E
F1
5D
E0
2C
24
56
2F
51
AC
CB
B2
B6
01
E5
53
29
81
A5
5B
88
C8
00
C5
6A
65
20
F3
6B
CA
5D
49
3B
3A
A9
E7
DF
7F
96
B0
AC
E1
E2
E2
62
47
B6
0B
48
DB
E7
51
23
67
96
0E
4C
36
81
37
80
5F
00
3B
19
29
A3
78
29
B9
A8
55
1B
0B
B7
FD
D2
ED
89
9B
48
F0
6C
EC
D7
82
7A
A4
38
7B
5B
39
5A
DC
F4
F4
85
17
EC
2E
51
15
03
EC
A0
3B
69
F2
A8
72
0D
71
E2
F9
DD
3A
FB
D7
5E
B4
D2
39
6D
AD
95
E1
21
9B
79
8D
49
4A
22
CD
B6
42
88
9F
B5
B0
92
42
A1
F4
BC
FE
AE
37
55
8C
6B
A8
46
58
D5
5B
BA
76
76
B3
83
40
7D
26
8D
B3
E8
95
D2
1D
C5
E4
E0
E7
59
1C
65
87
D3
3B
94
BF
63
5A
97
B8
35
D1
AE
2C
04
B1
EC
01
57
F9
34
C0
0E
87
5D
53
EB
BD
BA
C4
59
A0
CC
AD
5B
E0
EC
3E
BA
03
76
6F
55
A4
1B
D9
D5
87
5B
AD
00
0F
ED
8E
16
CA
62
82
08
9C
C6
E1
BC
12
0E
97
72
7A
55
AC
FE
4B
9C
D3
6F
37
2C
C5
3F
07
F2
BF
97
5F
CE
2D
A9
B0
2F
31
CC
76
93
09
08
21
20
FB
1C
F6
27
9A
C1
43
ED
B1
FB
99
F6
BA
21
68
F9
38
47
47
E5
70
77
95
22
C4
8B
35
4D
13
D6
ED
8E
72
63
36
8C
A5
F9
F9
D6
74
13
4C
AE
B4
34
28
6C
FB
EF
D1
EB
E7
E6
8D
2B
F1
42
F8
85
99
65
93
8B
49
49
98
6E
C3
11
C4
B7
A4
90
E6
D8
44
8E
C4
BF
FD
16
2A
64
7C
38
0F
EE
FA
87
F3
13
6D
06
1F
36
D0
37
24
13
C8
68
4A
ED
78
B0
45
3C
BE
8A
7B
3C
20
25
20
1C
DD
B0
8A
58
B7
FD
EB
A4
84
8A
5A
D4
41
FE
67
8A
E6
31
F7
DE
62
BC
9A
A0
C6
95
5C
66
3B
FD
03
98
2D
0D
70
64
8B
DC
89
8F
E6
63
E3
A8
E2
CA
B2
48
7B
29
A7
5D
65
C1
7E
AC
D7
5A
92
92
D7
15
AA
84
A3
9B
69
AE
F7
72
BD
5D
55
20
85
B7
6A
B7
80
65
60
A7
43
46
E8
41
72
3F
1B
84
51
73
1A
7C
77
3D
97
60
6B
0E
52
A8
EB
28
48
F1
5F
32
28
5F
17
09
86
DA
CF
EF
9B
C1
AE
37
C5
80
2A
5F
7C
21
1C
93
02
07
21
D4
2F
8C
7C
F7
FD
5C
A9
A6
3B
41
2F
42
9B
7E
B1
B7
BF
DF
6E
04
DF
18
E4
DB
B9
80
EE
3B
08
8F
90
B7
9C
8C
2F
19
68
58
3F
24
19
EE
E6
35
EC
17
6C
2B
76
5A
B0
D6
F2
14
31
2B
14
A0
E7
9C
AF
F7
D4
CB
03
83
65
EC
5B
24
90
F5
93
F6
AA
FF
8D
96
AB
83
70
DB
D9
E2
6F
8B
8D
03
AB
F4
20
DA
6B
74
26
EF
77
0B
5B
52
AF
6B
C7
C2
E1
F1
42
EE
07
6D
F1
F7
C8
4B
59
B7
56
67
3A
81
DB
DA
DB
C7
CE
81
36
C5
0C
11
98
3C
FC
DF
7E
5D
51
40
CB
D8
2D
3C
50
75
07
29
AC
DD
10
67
DE
6C
C1
3A
B3
10
3B
69
55
C8
FA
6D
84
76
CD
82
53
9E
43
9E
F6
F0
5A
C6
E6
E2
70
12
3F
00
F9
9E
EC
3B
58
1F
CB
13
08
A0
5B
82
8E
5F
78
DB
62
4B
F9
25
69
6F
95
44
B6
FB
A6
A6
8E
65
26
07
83
93
C2
5B
32
0D
EF
BB
2E
CA
BD
3C
AA
B6
97
8C
81
10
31
6B
FF
46
2F
35
C2
55
5B
D0
3A
02
57
3E
15
9A
19
C7
27
88
02
D5
D3
40
91
FD
76
A8
09
77
38
BA
62
B8
80
11
6D
C2
E6
49
12
A1
CB
EA
5F
60
04
F8
A7
AB
01
2A
01
54
EA
12
D1
E0
3B
5A
D7
F3
94
BA
2B
94
4B
19
D7
B2
E2
69
D3
2D
D3
B2
0D
57
2A
34
83
AB
DE
04
7F
48
96
D0
A8
51
AA
00
C5
BE
3A
70
D3
05
09
2A
37
6B
13
8A
18
67
BC
A5
3E
67
5A
41
92
B8
C5
92
81
DC
E2
A9
AD
0D
29
F2
4B
E3
E3
9E
69
6C
48
20
58
DC
2B
F0
C3
67
16
81
4E
F0
43
61
28
88
73
29
E4
D5
53
12
62
FC
84
2E
60
E7
4C
49
D4
15
E9
AC
71
94
1C
B4
7C
B2
B5
4A
22
78
2B
CB
81
1E
74
E5
74
47
77
56
C4
7C
04
A4
E3
D1
6D
37
66
D6
63
57
EB
00
8B
E7
32
C0
B1
D5
B9
5D
20
BA
FB
14
1F
EF
DC
17
C6
20
13
4A
44
76
9B
31
2E
81
87
11
58
F2
91
63
59
44
A4
8B
99
DD
68
39
17
E3
CD
B6
53
29
4D
99
C9
E0
63
8D
D7
7F
3E
85
80
46
16
59
B8
28
3C
92
EC
60
9D
05
BD
85
BE
54
E8
0B
8B
BB
B5
58
D4
FE
B9
B8
0C
10
B7
CA
15
B7
90
AB
90
C9
53
4D
DB
BF
2D
F8
44
6B
FD
82
3F
65
0E
4A
A1
43
23
F5
C1
5C
2D
4D
EC
64
98
81
9C
A8
AC
AC
F1
80
79
4C
BF
27
C4
84
12
41
86
D1
27
14
9C
48
D7
3F
BD
19
1B
6B
E6
87
4F
FE
88
6B
27
B4
98
98
B4
91
65
F4
38
A9
F8
CA
6B
FE
1C
12
93
38
DA
EA
F7
17
83
92
02
EA
99
D2
68
A1
BD
0F
D5
D5
28
0A
E7
0D
7E
9F
36
F6
EA
21
74
86
B3
87
3E
0D
F2
B5
A5
F5
C7
27
5F
E0
79
48
01
B7
D7
56
0C
7F
E0
73
0C
DE
93
C3
54
FD
64
49
03
98
50
C1
25
C2
F6
4A
38
3D
F2
17
9D
EB
DF
1E
22
37
F4
AF
36
55
A2
C3
B3
B5
06
88
32
EA
51
B5
02
21
F6
A8
64
6C
72
1C
29
E4
B3
46
50
13
E4
F2
CA
59
21
80
2E
44
C3
61
79
49
69
2C
B4
3A
61
36
DC
D8
5E
C0
C4
51
5C
6E
B5
8F
34
85
22
99
F8
6C
72
99
6D
20
5D
B0
01
57
7A
EB
03
AE
A5
E4
64
01
3C
43
41
81
14
1D
6F
49
2D
23
4F
CF
3C
C7
BC
2E
E0
A9
CE
BE
D9
50
95
D3
BB
18
01
E0
7C
E6
62
39
A9
23
3A
3D
C1
29
06
6E
CC
D5
BD
89
1C
F9
37
7D
22
86
BB
7C
56
D0
CF
91
68
51
F1
64
B7
D3
1D
E0
77
D7
9D
B8
80
23
A6
CD
79
E3
D6
15
5D
8D
12
FF
93
4D
FB
69
9D
4B
7A
85
1C
EC
6A
53
3F
07
B3
36
5F
D0
6E
5F
73
94
AC
6C
F8
02
02
D5
10
94
54
23
62
D0
0D
7F
9B
07
85
37
73
6F
0A
33
F6
3D
E9
D5
8D
D8
B5
80
EC
E1
6D
64
64
EF
B9
F4
03
8E
97
E5
DE
24
E5
F9
AC
EA
B0
9F
D9
3A
52
4F
F7
BC
A5
04
14
DA
04
80
3B
F1
65
1F
60
9E
93
E4
AC
AB
49
0A
4F
AE
83
7B
18
B3
9B
71
6D
6D
41
E4
A9
66
68
3D
C0
ED
3E
7B
5E
23
1B
3F
41
2E
A3
6E
59
6C
F8
29
9B
FC
24
33
2F
3F
25
1D
2D
E6
81
56
CC
6A
14
0C
D7
D2
07
B5
75
A2
74
36
51
97
24
2A
84
9D
D3
9F
19
78
52
C8
37
F7
65
E4
5D
67
BB
A9
51
4F
35
A8
A1
BD
DD
96
DF
D2
4C
B0
E9
F1
5B
ED
0E
AE
0C
A7
A6
DF
EF
5E
56
D5
C2
34
BC
FD
5D
8D
CC
13
B5
ED
50
12
03
AF
64
D0
E0
CE
41
BB
3B
CF
E9
C8
F6
10
27
65
EE
FD
BA
30
B1
F6
AE
8F
03
FA
22
38
68
F2
CB
EB
21
AF
3B
81
FD
FC
BC
B9
4B
26
01
C1
B6
A8
A7
24
25
E1
D4
57
58
02
66
DB
7D
08
94
65
7A
DF
D0
1B
0E
8C
1D
8C
08
59
C5
D4
FF
46
15
35
6E
3C
D9
13
9E
2E
EA
76
B0
D0
D1
AD
58
E5
92
52
44
E3
EE
D3
EF
8B
DF
77
64
24
CB
E4
EA
61
99
D8
1D
F3
6B
3B
A1
D6
31
D1
26
83
FF
FF
E8
11
D1
AD
74
3F
00
E3
4A
5F
DB
2F
03
26
93
6D
07
AC
C5
A5
1F
B0
60
40
06
12
92
AD
15
11
2C
7D
A2
7D
AA
97
3D
2A
FA
07
09
55
B6
8C
FC
C9
79
83
F6
BE
A8
95
EF
89
56
75
1B
68
A2
B0
F9
4E
AD
1B
4C
D8
32
09
82
AD
90
0C
82
C7
18
FE
10
12
02
86
50
2A
9C
BF
33
72
B5
CE
5A
D7
FE
D3
A6
2C
6E
72
84
21
FB
86
4E
0B
12
50
52
AB
CF
E3
3D
51
E9
0D
FB
05
4D
AF
F7
82
FD
D1
D9
7C
24
FF
28
13
F1
2C
B4
6C
32
82
F8
C5
52
CA
F0
A1
2D
AD
72
97
3A
EE
1C
07
1D
94
09
9A
E5
63
96
8A
E2
3E
1D
54
EA
51
40
9D
53
B8
E2
25
03
52
47
B0
7F
39
C7
39
A7
64
C1
44
78
4A
5F
DD
2D
75
E7
90
34
84
64
9E
55
24
BB
28
5D
1D
CE
E0
EF
95
10
EE
4E
58
A8
76
3C
E9
3A
34
B3
19
91
61
0F
F9
71
C3
FD
55
E1
D3
F9
1D
7B
D6
BA
C9
36
2A
DE
C7
98
AD
9F
C0
A3
5B
29
5D
0F
5D
F7
20
3E
86
99
2F
C9
