96
F5
77
CB
01
50
BF
83
F7
34
54
78
07
F3
30
2C
D7
BE
8F
8E
B1
8F
40
DB
15
BA
37
33
65
2D
6D
7B
A2
64
C6
23
34
06
26
AB
BA
FA
A3
42
6E
53
EE
C5
91
FD
D4
C3
0D
94
1E
A2
CE
D5
55
B4
82
42
AF
A4
26
F6
48
DB
7C
EE
06
B6
69
2A
78
57
FD
E7
9C
0F
64
F0
52
F1
05
F0
13
53
46
E9
87
48
AB
B7
6D
52
2D
35
AD
29
A3
33
5F
8C
DD
58
63
5B
BF
80
EA
A3
F0
BC
15
75
2C
A8
49
F2
11
50
BB
3D
87
A8
0F
34
5D
3C
DD
80
EF
BD
8D
4D
95
70
28
D4
70
92
F7
E1
CE
8C
D6
7A
B5
9F
ED
46
70
28
03
77
50
92
2C
2D
4E
89
2D
BE
C6
3A
8B
DB
2B
33
2F
1B
45
A7
7C
93
B3
D3
8D
E8
F2
FA
AF
E2
A2
32
DA
72
45
86
1F
13
8F
CD
51
D6
87
5C
31
32
0F
E1
CE
D4
08
CA
E7
3B
1D
F5
A4
90
6F
D3
F2
92
85
4C
84
4A
52
24
DE
62
71
AF
B8
78
8C
69
2B
1B
CA
79
70
52
C3
D7
0E
61
4C
32
71
3C
85
E3
4E
8A
B0
52
55
82
F6
B3
64
E7
E2
9C
E0
EE
86
8B
8A
D0
84
7A
A3
C7
D1
31
A8
9E
E3
99
5A
E8
FD
28
F2
2D
FA
C7
2F
71
FA
14
D8
5D
30
38
CB
36
43
D5
87
47
CF
AA
8F
21
5B
B7
3F
BE
D1
19
26
4E
C1
98
FB
3B
E0
AA
2C
5A
3E
85
37
EF
3D
83
A5
01
D8
AC
C8
28
D6
D7
C9
B1
0F
88
EF
60
21
95
2E
62
AE
A9
1D
0E
D3
CA
E8
92
CF
A0
01
8C
A3
26
0D
FB
53
56
A3
A9
AD
EC
DB
3C
F4
4A
1C
95
60
CA
77
8E
F3
15
1C
47
5F
84
59
AE
A4
DA
BA
C7
80
48
43
53
1E
66
7D
4B
D3
D8
08
47
A2
A4
5D
82
EF
54
90
62
E9
2C
29
C8
31
02
F6
55
5C
31
9D
5D
F9
60
30
97
46
2D
62
99
85
EA
61
A8
0F
3E
AA
7E
12
BB
60
7C
67
0A
C4
18
8C
3B
EE
69
EC
0B
46
65
EB
F6
7C
B1
A4
5E
CB
A9
C9
AC
D1
58
6A
FC
56
FC
37
36
F8
1E
C0
3D
B7
CD
F8
25
B6
64
B0
7C
49
1B
F2
45
4C
16
23
97
40
6C
C3
91
44
AD
0D
1A
2A
C4
D1
A2
63
11
5F
9A
5E
D7
3F
94
BB
6F
90
84
0A
03
49
D6
99
ED
EE
59
D9
31
6B
9E
5F
F8
38
09
3D
89
2B
20
1B
0B
3A
F9
62
F9
0E
9E
E8
1E
A2
72
A1
6C
C8
BB
D9
36
94
32
E8
7F
50
C7
F8
09
50
B5
12
FB
55
AD
86
0F
27
69
88
B5
87
F0
53
A9
E2
75
95
2A
B0
EE
E1
C4
A1
49
C4
71
90
3C
FA
60
71
8D
DB
46
BA
E2
D5
61
CB
DD
96
D2
4D
6A
FB
AF
5F
11
59
8F
7F
BA
D3
A0
83
17
92
93
D3
0C
73
C4
19
CF
8A
54
31
DF
35
7C
3C
4C
CE
09
36
49
38
15
DA
12
24
DA
4C
77
FA
50
0F
0C
63
62
99
57
A7
32
A6
B1
06
57
11
BC
53
CD
88
A1
57
3E
6A
0F
D3
C5
A1
77
1F
6E
6E
99
3E
FD
26
21
E0
3F
F8
07
F1
1E
38
78
F5
C9
B4
C8
17
BC
E9
EE
7A
D4
7D
CD
19
9F
C4
B8
8D
B2
D1
4B
30
77
EC
90
36
65
17
A8
03
CF
A0
79
19
D4
C1
B0
10
2B
1E
0A
7F
1B
57
18
3A
9B
50
47
CD
A1
12
7D
99
7F
8D
4F
64
24
77
E7
74
97
E0
0D
EB
22
3D
7B
CD
DB
05
CC
76
DC
64
31
F7
34
F8
45
55
8B
42
6E
8A
50
3E
6E
F4
35
D5
E8
4D
36
75
B8
D8
32
B4
25
8D
39
71
84
96
55
35
0D
09
AD
D2
DE
B8
95
CD
C2
65
8B
B0
D9
40
06
42
0D
BC
37
46
14
EA
7A
B9
F7
33
AA
FB
49
7F
B0
D7
08
DE
29
66
16
3E
B3
59
23
BE
89
7D
7F
0F
3F
0C
4B
F6
D2
DF
60
CC
18
D8
80
42
53
49
41
84
A0
C9
E2
4A
B0
78
08
E3
51
AC
22
5B
A9
21
EA
68
AD
B6
DE
00
15
BF
4C
AE
17
4C
70
EA
16
32
EE
36
7B
50
00
AB
49
89
0F
1A
B5
B1
F5
DE
52
60
C6
7F
96
24
FF
2B
63
CC
59
FA
98
4A
65
2E
FC
D3
E5
F7
A4
65
23
6D
6E
B2
07
A3
E3
7D
01
B5
5D
47
B4
73
EC
34
1E
CF
80
F8
4A
98
C2
2F
47
3E
82
AC
B5
A6
91
58
93
80
8A
1B
A3
ED
18
25
22
F5
EC
57
E8
58
0B
86
A8
0B
FE
72
23
40
21
EA
FE
23
16
34
4A
28
0C
5D
28
17
F8
4B
84
90
F0
27
05
5D
FE
6D
35
89
74
5D
14
F2
4F
B7
B3
F0
22
31
94
B8
E5
5E
60
72
3B
08
09
B4
D4
0D
C4
44
B4
