A9
06
1C
9F
87
C8
22
28
6B
A0
C9
0B
78
B0
93
A2
28
15
C9
07
1F
91
D0
CE
0C
24
9B
53
45
7B
67
D2
E0
90
BE
98
BE
C1
14
69
9F
7B
A2
A2
14
C2
D4
8B
9B
3A
F6
71
59
B3
E9
76
41
9E
81
80
AE
57
89
D5
8E
5D
78
FF
2F
61
EF
D3
70
71
94
D2
8C
F2
60
ED
36
60
D8
FA
65
91
99
29
73
A7
2B
2B
13
76
F3
94
5E
2C
A0
24
77
A3
06
6B
12
F3
C6
DA
29
5A
7C
F1
9D
35
BE
7A
61
21
5E
44
E7
B8
DC
AF
6B
29
3D
5A
A3
DC
58
43
98
2A
39
F4
53
98
A9
50
EE
B2
98
90
6A
9C
64
0E
54
8A
54
C9
F8
0C
A6
15
C8
9F
18
BF
F6
69
11
AA
70
EF
C5
E3
09
AE
9F
68
D4
BE
FC
A5
AD
93
59
DE
F3
3C
43
63
3C
EC
EB
C6
D1
A4
99
42
33
BA
59
84
78
27
CD
89
8D
F8
C1
5A
C5
CF
B1
1C
9D
60
AD
2D
53
BA
F2
EB
BF
00
CA
C9
84
6A
4E
85
50
A4
E8
50
CB
C3
1A
4E
1B
65
4C
88
08
4C
76
C9
67
99
96
C3
AE
5F
21
74
5F
74
F7
29
6D
F8
B8
14
87
97
DB
47
C1
4F
95
FE
33
E6
53
1D
5D
01
94
25
38
DA
A5
C1
C1
85
50
C5
2D
B3
90
48
D0
0C
6A
22
00
9A
76
62
07
56
FE
37
0D
B9
80
2E
34
B3
B9
5B
0A
00
BC
7E
DD
73
9C
77
23
FD
C1
E4
97
CA
D6
68
D5
6D
DD
B9
D6
A5
B6
48
94
D5
0F
0F
94
03
E9
BD
