BC
53
A2
9F
6E
34
8F
A4
69
A9
64
86
3A
88
88
A1
9A
2F
25
78
29
9F
34
92
60
F1
D6
D8
E1
04
58
1E
D7
7A
3D
C5
2E
4C
EA
17
75
CE
1D
30
D7
26
51
F1
D5
F6
E9
7F
15
9D
91
F5
0F
E7
4D
70
6B
25
0E
C2
1F
CB
07
CE
98
71
65
8D
C0
03
3D
17
A9
0E
88
FE
84
F1
FD
1A
0E
0E
8F
9D
75
5D
8E
60
02
1C
A2
A2
68
2A
F0
80
1B
D5
8D
5B
58
4B
F2
81
D9
FA
00
DE
6B
7D
78
FA
0C
87
17
01
64
25
E2
E7
C2
04
09
AA
AE
79
AA
4A
CE
B7
25
A7
82
98
A8
DC
12
28
3A
FE
26
32
78
B2
39
0F
33
1E
B5
95
85
F7
1A
0E
21
48
07
4B
12
55
82
B8
7C
85
D0
A5
E1
62
4D
9B
E0
F3
4D
D8
25
06
68
D9
A4
9D
EE
A9
14
88
37
B5
51
BE
80
E3
94
82
1B
90
87
6B
B5
E8
4E
83
03
AE
F6
D0
07
9C
57
EF
F5
7B
0C
63
A5
A0
6C
5C
D5
3D
9B
D5
A0
AF
D7
3C
BF
DF
27
F5
47
F5
F8
CB
24
6E
1B
AB
8A
F2
1A
FF
EE
A6
E3
13
C6
CF
EF
1B
8C
0A
70
AC
