FB
69
2B
99
44
0B
4F
51
33
9C
C9
FB
9A
36
C3
4B
EB
2A
D4
AE
56
D2
E3
E8
A3
ED
FA
D1
EB
99
A6
66
82
51
7F
46
DC
4E
17
90
6B
61
0B
85
17
4E
50
82
F8
A5
B0
CE
F7
13
37
1A
81
B1
6C
EC
CA
92
D2
CD
63
D1
93
C0
A0
2B
D0
8B
0C
5B
90
A3
2A
61
A6
A2
86
D6
F1
FD
6A
A8
98
6B
D9
84
D7
23
96
29
70
79
7A
84
B9
9A
2F
09
A5
BB
E5
B6
DE
8F
97
04
B1
9D
5B
22
1A
45
4A
32
30
A3
36
87
47
4C
30
37
46
2A
3B
7F
45
EA
09
6A
25
6E
A0
84
7D
B7
08
AE
D4
E3
51
6F
A8
1B
21
58
3F
D8
5F
06
A4
0F
BD
6A
BA
79
6A
7F
E3
F3
69
89
E1
8A
8D
DE
C1
15
0C
16
79
DD
05
A1
79
A6
7A
38
FE
59
BE
23
E9
FB
0D
23
F4
F7
22
58
6A
0B
61
CB
15
6E
29
57
03
B6
ED
FC
13
72
1E
0C
98
18
C4
17
F1
02
BA
5A
7E
47
FD
F2
BF
9F
CA
A9
2B
AB
F5
C0
99
9E
97
1D
D4
04
99
68
F6
37
F4
0F
CF
39
A6
41
BB
E0
1B
B9
A7
99
2C
E6
B8
76
