42
60
24
EC
74
16
65
9B
B4
E4
0F
20
E9
EB
F3
8E
C8
D2
5E
D0
97
A3
13
00
E3
4B
81
F9
C4
02
A3
86
E2
48
F2
D6
DE
D7
F2
12
3B
81
B2
A4
EC
26
B3
34
78
91
84
8F
B4
17
0F
18
E3
10
91
27
93
B4
2D
F5
7C
9F
4C
DA
F6
BE
6D
B2
BF
9F
D6
2B
45
09
E0
3E
1B
E4
4D
4F
7C
DD
E7
DF
6D
F8
86
80
2D
33
F6
29
52
C2
84
C8
00
71
FA
3F
90
51
EA
56
DA
4A
14
75
AF
E1
45
AB
3E
AC
0A
2C
25
10
2C
D2
C3
A2
7B
95
E4
7F
DD
64
70
58
23
81
29
8E
57
83
58
EB
79
87
4C
3E
B2
0B
6A
3C
B7
0F
CC
63
61
0F
86
5D
24
EA
5C
82
CF
4D
5A
72
4E
03
80
25
06
59
90
FF
60
5C
BD
93
E7
A8
4F
1E
37
9C
02
19
2B
08
F6
D0
72
D2
D2
C1
9F
AC
B4
6D
2F
B4
12
B5
8D
22
35
6E
FF
72
81
66
9A
50
05
52
6C
87
EB
18
0F
61
68
01
B3
BA
43
D3
E6
77
C0
95
AB
53
CA
B9
F5
7F
A7
74
72
A8
5B
8C
78
E0
5E
65
E7
C9
FD
76
AA
E5
F7
DE
1F
BA
31
85
B1
71
9A
DD
44
E4
16
BA
E4
3D
AE
D6
65
89
E2
5D
E9
C1
42
50
0A
BF
46
35
24
BE
93
C3
F8
44
C8
2A
35
E2
87
FA
47
1D
34
AB
DA
62
01
BF
6C
63
9C
D5
A4
5F
A6
2F
9E
6C
E4
43
AA
F7
86
23
BB
CF
CD
70
31
D4
EA
F8
71
9E
23
CB
81
A4
0A
6D
88
26
C2
AC
05
E8
5B
24
D5
BF
E7
FF
36
ED
A2
71
3C
EF
62
EE
43
CC
66
34
EB
0A
7F
EC
2E
09
D9
36
B0
1B
63
35
84
3E
D9
D9
7E
40
58
34
AE
7B
26
6A
EA
08
D8
AE
54
BF
62
BF
49
62
2B
F7
EB
84
AE
1B
20
91
D1
24
4F
2A
7D
4D
EB
55
02
19
50
A8
03
BB
30
5C
E9
04
9B
CB
44
64
AD
EF
DB
19
F4
09
B4
94
1A
05
38
EA
B0
35
B7
1B
0A
39
B4
DB
61
37
16
11
13
7F
96
2E
CA
5A
12
F8
C9
6E
91
3D
F7
C5
51
92
4B
09
FC
7B
BE
33
16
49
ED
4A
A4
CE
01
3A
60
95
39
76
43
83
50
D6
FB
99
C4
0C
57
3B
52
28
4D
1D
B2
C9
18
F0
7D
AE
B9
EA
78
DD
38
F9
97
18
0E
50
0E
D2
54
DE
28
CF
F8
6C
5C
CF
27
2E
77
F5
CB
A9
3E
63
1A
3B
91
53
A5
89
B1
5E
02
C8
F6
91
99
85
E3
6D
E3
8B
BC
5B
77
98
AA
1E
46
A2
93
91
CB
52
74
65
0D
85
39
33
8E
6A
11
11
B2
87
22
CB
8C
85
B8
F0
90
F5
CB
87
0D
F6
25
D4
18
39
E5
63
0B
DA
49
98
DF
02
4B
EE
EC
DC
7F
1E
E4
21
6A
F0
26
A2
60
36
17
AC
3D
A5
22
E2
F9
BA
9B
5E
9D
26
B8
66
3F
18
E8
0A
86
54
67
85
F3
CB
26
DD
3B
CC
FF
1C
82
97
48
3F
BC
EA
A1
35
24
BD
13
41
63
4C
28
22
E4
90
AD
EA
65
94
EF
D8
DF
95
35
9A
E1
B4
36
E3
CB
FE
A2
07
68
C3
BC
0C
00
50
CE
E4
1C
76
86
80
86
B3
EA
6B
C7
59
C3
26
6E
78
41
CF
AD
F7
32
F8
76
54
80
5E
97
BC
EB
18
8C
39
7C
28
2F
82
28
35
B6
92
21
FD
6B
64
A4
59
5D
65
A8
8A
DC
5A
02
D2
2E
02
B1
46
3F
1C
DE
4B
D5
DA
F4
84
DC
9C
39
12
AF
DA
90
9A
BF
B4
74
9C
99
9C
A6
F5
77
28
48
25
AB
79
EB
6A
15
49
35
6A
A3
A9
6E
00
C6
27
92
F5
82
A2
0F
C1
D6
03
DD
EF
20
03
65
17
AB
2D
BC
D6
26
28
C0
BB
F1
76
A5
15
9F
93
95
E5
3A
A7
5A
3C
CA
EA
7D
20
6D
DA
90
0D
5D
75
A4
89
22
E1
DF
C8
89
20
03
FA
16
28
8F
35
3B
A4
9B
F5
CC
75
B2
16
DF
AF
B6
CD
0A
C6
5A
E7
BB
7F
F0
5D
E0
50
A5
E9
F0
28
63
86
D0
73
3B
8B
97
56
01
E3
4C
33
79
AB
62
B0
F8
EC
F6
D3
54
32
D2
C4
0F
32
94
35
9B
04
DD
7E
0A
2E
71
C6
39
89
9C
BA
EC
68
6D
E6
94
50
16
0C
BC
8C
5F
90
3E
B1
D5
CE
63
E9
83
7E
6E
E0
7D
F8
8E
6E
3E
48
77
5B
82
E4
43
70
4A
57
40
E0
E4
7C
EC
C3
8D
AB
F5
E2
F9
D8
4B
FC
D7
39
5C
D4
B2
6B
C2
70
33
BA
4B
35
1E
0F
25
E8
E6
E5
48
4A
E2
B4
8E
EF
DF
03
51
58
5B
1C
D4
B2
D6
B1
06
08
9C
49
F8
4F
83
C4
04
21
53
AA
89
B9
0F
51
84
71
85
92
E0
E5
15
B1
BD
F0
4E
12
23
A4
43
A9
2C
5F
72
A4
2E
75
E8
B2
16
BB
DC
1F
F5
6C
F0
F9
5D
F6
0B
BE
5B
A0
EF
98
10
BD
2A
B3
E1
ED
DD
8D
CC
CF
B2
7A
C5
1A
AD
5B
56
09
FB
CB
F5
6B
44
D3
E1
CF
11
BC
EF
80
D5
7F
BE
7F
B3
1F
ED
10
2D
39
5F
5F
34
A4
F9
61
80
CF
EA
FB
1A
60
E6
DE
B3
48
2D
44
84
9C
44
D9
9C
82
D9
CF
22
46
5F
CF
FF
3E
AE
B3
63
27
94
63
77
FF
DE
11
DF
44
70
12
0C
1D
D6
11
3A
9A
6A
56
9D
C3
A5
3F
89
84
8E
09
42
BC
3C
25
63
51
08
5A
D0
66
EC
2F
2B
DC
C1
B7
79
17
48
33
31
33
09
4E
76
2E
0D
80
32
1B
09
F5
57
C5
9A
3B
96
23
15
E6
09
81
95
B4
DD
D6
EC
D7
6D
B4
8A
1F
67
14
ED
5E
C2
7B
5E
75
16
E7
EA
EE
2C
04
A9
43
A7
3E
A9
31
40
BF
65
9D
15
D1
F4
03
06
FF
A2
ED
93
0F
CB
D5
0A
A9
CA
A1
10
34
0F
BD
B9
38
80
E0
F6
A9
91
B6
E8
77
D4
7E
C8
48
01
4E
C7
23
BC
DA
B2
07
30
3D
31
7A
5E
C1
2F
ED
FE
68
A5
FE
C8
1B
28
DA
52
90
D1
A6
8E
19
6E
0F
E8
B6
B2
24
10
E5
AB
C0
A2
5C
BB
80
9E
6A
ED
1C
52
12
9B
9A
AD
43
F4
7F
53
45
A5
62
DF
94
F1
47
CA
24
EB
5A
89
16
9B
AB
F3
D6
AB
11
C0
18
AD
92
AA
C8
AC
D7
8B
21
D7
5F
E6
FC
41
45
10
B2
0C
5A
56
77
35
5F
0E
50
8A
81
A6
B5
12
E6
4D
3F
F8
77
88
24
CF
93
C5
26
72
2C
A2
33
F1
33
66
7E
0D
3C
75
C2
1C
03
92
26
04
B8
5C
96
1E
29
56
96
21
5E
3B
70
71
80
16
64
2C
38
17
9E
EB
FD
9C
79
BA
91
BB
56
15
CE
FC
99
06
D8
B0
A5
82
86
BB
23
64
76
13
55
77
A9
39
23
61
D1
41
CD
4E
5D
C6
88
6F
01
5E
04
4F
DB
1D
D6
33
4D
FB
35
53
36
D8
37
2D
6B
0D
24
94
C6
C7
76
17
89
C3
E6
66
09
EE
55
8A
CD
D9
5A
28
77
B0
DB
44
2B
91
18
E1
E9
CF
8E
D5
5C
32
E9
A3
7A
DF
3A
83
22
A0
69
AB
0F
3F
B6
5C
98
90
04
8F
C0
5F
54
6B
70
EC
CC
DA
3B
DB
2F
18
8D
98
3B
87
F8
F5
8A
9A
16
74
C6
A5
33
FC
81
4B
0C
05
5B
4C
E4
2F
37
D5
9B
83
2F
56
DE
DE
EE
EC
F6
A9
F3
6E
1F
FE
89
B5
F2
CF
DA
A5
4B
DB
70
D7
60
4B
A3
C4
FA
5A
19
15
5D
C8
EC
BC
26
5A
28
9D
84
9B
8B
23
19
94
58
8B
E3
B2
B0
AE
0D
A1
05
ED
6C
28
31
E7
02
CB
7C
E0
13
E8
1C
BA
C3
C4
D7
C7
DF
E2
6A
79
F7
42
84
5A
74
B5
89
01
D6
0E
6E
C2
B7
1F
29
39
6A
26
99
FE
8E
35
38
D1
79
8F
18
D9
F1
02
D2
68
C4
D6
43
B8
0B
4C
39
61
DA
27
A4
11
C7
4D
CB
B1
F3
E4
2F
02
9A
E7
53
93
F6
EC
EC
68
6E
3E
50
B3
95
13
EB
20
DF
A5
02
3A
4C
26
CB
93
F3
16
C5
67
7B
74
E9
95
DC
BC
A8
52
28
15
3A
17
D3
0B
4A
E8
9E
B5
89
FE
DA
0B
B8
A7
B1
03
BA
24
9A
FF
0B
95
F4
74
AA
50
B1
D2
22
59
67
DD
F0
BB
68
BA
23
86
F0
2C
04
4A
B7
3C
71
E8
C0
AC
8D
DA
2B
18
EF
9F
0D
19
6F
3E
6B
12
17
53
6F
88
8E
57
C2
31
5D
32
DE
E2
FD
15
9E
EE
7E
DE
1A
8B
38
C6
23
A7
E5
B0
40
D5
6E
2C
67
06
FF
56
0E
0D
2D
50
BE
0A
03
1C
6C
80
B2
8B
EE
B0
E9
89
BB
A2
CF
5E
C9
34
8F
8A
89
7D
36
70
03
B5
46
91
42
F3
62
80
7E
E5
1D
6A
E5
4F
75
53
7F
DF
5C
BA
01
AB
98
4A
60
A7
54
69
A5
0A
5A
28
3F
20
3A
01
94
1C
02
92
81
9F
7C
E6
6E
72
B9
6D
D1
96
A7
52
C1
BF
1C
A1
E7
F1
8B
0C
7B
65
B4
3B
05
6E
BC
19
0A
3E
2B
0B
5D
28
71
4B
1A
AB
38
6B
C1
5F
3D
02
9F
D9
24
06
4A
2F
92
46
14
C6
01
99
B5
3D
33
3F
FC
DE
CB
D9
86
BC
A5
20
E7
5D
0B
28
3D
C8
AB
5C
22
4F
E2
EC
FE
F4
B2
92
3A
33
AB
6F
F1
5E
2F
6D
BD
7A
C6
C3
B6
EB
64
1E
C9
EF
C6
86
38
F1
62
DA
C0
C4
46
3E
38
79
50
F2
2C
7C
E2
9D
5A
91
8A
97
8B
D1
DB
C1
3C
BF
5F
85
2E
A6
8B
E6
17
6D
40
58
B1
07
16
69
00
E7
DC
AC
E3
3E
CA
BD
4F
D4
D5
5A
25
30
9B
E2
6F
7B
E7
1D
A1
F3
84
38
E0
44
10
12
CB
A7
FB
4B
0E
57
78
71
15
C2
AE
E4
16
03
BE
BC
B3
DA
1E
A2
D5
85
40
F6
F8
44
AE
59
08
3F
EB
54
66
66
1F
F4
3E
17
E5
D3
59
13
38
F0
97
76
2C
CA
D0
CA
ED
25
CF
AD
9B
48
71
CA
21
F9
89
8C
CD
6F
72
6D
E3
30
04
48
84
DE
DB
3C
4E
F2
32
FA
3D
83
44
AA
28
93
D7
44
5B
C8
8E
FC
41
97
08
8F
86
FB
7C
E9
AB
00
B1
AF
5E
0C
6B
2C
7F
1E
A6
3C
21
6A
66
C9
7E
BD
8D
59
05
9B
D6
C6
B2
5E
D5
B8
D9
D1
21
05
52
52
34
30
DF
20
DD
DE
BE
03
9A
5F
EE
80
A8
EC
BD
B6
C5
42
D1
1B
88
04
FA
DE
3C
53
2F
DE
D8
01
B0
8D
B2
0F
2D
0F
6D
6B
92
87
4A
00
87
72
6C
C4
A8
B2
86
FA
4D
8F
7E
C7
ED
3A
9B
9C
98
F3
1E
C9
00
50
58
AD
DF
46
98
F1
4D
62
72
55
55
5E
99
7D
90
A0
F7
5E
AF
F5
A5
1C
B0
C0
38
C8
34
D6
11
B4
A6
EA
E2
05
B0
FA
77
7D
DD
69
52
B2
47
6C
AF
58
8C
27
36
BB
9C
5B
57
CC
9C
0F
15
50
66
A6
84
8C
10
E6
12
40
61
09
3E
BE
F2
10
F0
B9
FC
1F
91
08
C6
47
43
E3
23
1A
2F
3F
AA
C4
0F
90
EB
13
9C
7B
7A
2E
3C
5B
B7
FA
99
29
8A
09
63
07
A8
74
8F
EF
3C
53
52
DF
ED
01
9E
17
46
2D
27
B1
C0
44
AC
BA
F2
68
95
2A
E2
AE
D3
ED
37
B6
74
60
AB
83
CF
67
56
A1
C6
C4
22
E4
5B
E8
91
03
19
D1
C7
46
0C
39
2E
21
E3
91
50
37
FE
07
6D
F2
E7
98
F5
36
7F
CC
57
C5
10
FA
29
EB
62
3A
6E
FC
8C
B5
C2
18
6F
70
B9
D2
81
89
89
FF
11
77
71
78
8F
E7
2F
8F
33
06
D4
C3
80
7E
2E
63
38
1D
DF
44
52
21
DC
41
11
16
94
13
1F
9D
92
B0
94
84
A9
A4
EB
58
B3
9E
DE
07
E1
DF
05
8F
C2
BE
2C
21
82
FF
C2
DF
C0
53
75
D4
E6
14
F2
F9
45
06
FD
6E
2A
68
46
5D
86
A4
E5
E7
03
6A
F6
45
A8
A3
E6
AB
22
28
0A
62
FC
FF
B7
62
93
29
DB
58
AF
58
46
5A
40
0C
37
46
31
9C
AD
B4
87
24
7A
AF
47
E0
DA
E9
89
64
CB
05
E3
02
E7
F7
AB
43
CF
DB
1B
96
B5
DC
22
6C
A2
D3
89
D0
08
90
74
02
BF
3B
62
1A
A4
6B
FE
EF
F0
62
72
58
D9
9D
1B
28
F8
B6
3E
2D
12
E1
1A
35
34
23
85
BC
33
79
3E
72
34
21
0C
58
0C
8B
C7
7D
6D
B9
55
C6
D7
F0
6E
4F
26
2D
FD
B9
8E
97
6E
42
3A
73
7F
ED
6C
3D
DF
20
DE
6C
F8
6B
77
3F
68
64
79
3D
AA
D0
AD
98
9F
53
45
1C
8C
53
33
7A
16
ED
6D
15
5A
59
D2
BA
F9
31
A6
71
1C
9D
31
04
81
2A
C1
AB
7A
EE
C3
99
C1
89
36
CE
5C
E9
C8
F2
57
B6
87
31
8F
DA
6B
09
8B
91
FA
27
AE
AB
AB
AF
55
EC
DA
4F
5A
1E
69
9B
27
1F
E9
03
88
32
76
5F
68
7D
11
77
D7
FC
00
E2
0E
7B
89
3C
A6
B4
6C
7C
20
C6
4B
FA
64
34
16
0B
D3
7F
8F
DC
31
85
BB
19
82
4C
11
DA
C9
91
3C
57
8C
46
13
B3
7A
FF
AF
1B
46
7A
95
2A
2F
2B
B6
82
2B
C5
DE
DC
CA
1A
76
CC
E6
07
26
2F
18
E3
06
25
A9
9A
58
A3
19
87
3E
DF
81
54
8A
30
FF
C0
33
AA
05
91
07
4F
2B
FD
9B
92
84
42
41
1C
A5
C8
C1
CE
E2
99
F1
7B
A0
B0
DB
A2
84
E5
52
03
25
05
2E
AA
17
B5
79
C2
32
94
D4
36
56
96
D2
7B
DE
14
C9
40
2D
3B
3B
4E
6B
96
70
6F
FB
42
F2
A0
C8
A0
CA
5F
D5
C3
A1
87
D8
F6
3D
AE
0C
90
AA
6A
24
F3
2A
D1
AE
E5
9F
99
FC
8F
88
77
52
FB
98
9A
1B
E2
79
71
26
9A
78
7E
10
36
AC
9C
46
D6
86
EA
4A
30
3B
78
96
5B
92
12
6A
9A
09
3C
15
21
56
B1
84
4F
A2
2A
6A
9A
28
FA
50
54
17
16
AB
1D
80
75
CE
3C
6D
E4
17
7F
76
01
9A
FF
BE
2F
A1
94
60
A5
64
82
4F
4E
9D
F7
C8
6D
CB
5F
04
F6
FD
04
EB
4B
C0
D9
AF
57
D8
A5
D9
F2
24
17
A2
45
2B
82
6A
0F
85
39
DD
A2
B0
26
8F
FC
05
13
72
82
98
DE
4D
D8
37
7C
B0
8F
A1
09
02
46
A0
24
0B
4B
26
F6
DB
2B
AF
38
4D
E0
DE
5D
5C
64
F0
4E
66
08
AC
34
61
63
30
91
73
52
1A
F5
18
3A
99
A3
05
3F
19
60
EB
49
19
B8
A9
77
95
85
5B
06
53
42
8E
80
F6
6F
63
A6
80
56
78
1A
CB
10
D4
E4
34
5A
A4
CD
3A
0F
96
D3
47
BF
CB
5D
C4
A6
E3
98
68
F1
98
DE
E1
7B
05
E1
52
FD
7C
9D
8E
D0
02
42
AA
26
8F
65
B5
A6
B8
7C
E5
03
59
2A
2A
BC
42
12
2E
5A
71
8F
55
F6
F0
27
73
EC
45
81
3D
C7
43
67
6D
53
4C
A2
79
85
9E
DE
08
78
88
B2
B4
4A
45
62
24
36
71
FA
AC
E2
A1
9F
4E
66
A1
0B
AD
64
F3
9A
37
BF
BC
30
C4
DB
8F
4D
D3
97
7F
07
62
44
EA
06
FA
DB
80
26
3D
A2
46
0C
88
67
97
B6
4B
0A
D0
03
4A
0D
B3
8E
68
C2
5B
BB
DA
5B
42
BC
1F
AC
42
9A
08
43
40
C5
65
06
51
6D
ED
69
A3
B9
F3
F4
3C
BD
81
6F
CC
69
B2
A7
A4
0C
82
66
48
22
93
0A
3C
1B
CD
FC
60
B2
83
32
A0
F0
1B
C3
29
8E
37
E5
CC
38
D5
18
21
07
3F
45
93
42
2C
5B
E4
3F
E5
A0
DA
33
1C
BA
65
1F
6C
85
90
07
C9
39
16
80
9F
62
39
F4
FA
DA
7B
B9
A0
8E
7B
4C
69
DF
0B
CE
FF
65
81
9C
9F
67
3B
8C
6C
4B
13
B5
05
A9
B6
24
8B
6F
98
05
C9
93
3F
E9
A1
3A
B5
8A
9A
40
D8
19
25
DA
35
45
C1
F1
51
AD
BC
E4
E3
41
0E
19
E5
19
08
FD
9F
51
10
5E
BB
31
18
F0
3B
32
B1
94
CC
56
EE
81
1B
2F
F2
EC
5C
2F
51
BF
F0
DF
58
56
78
E0
D3
97
B2
64
75
ED
15
0E
5D
D1
C0
8E
E5
0C
65
53
0E
00
02
80
6D
DE
2F
3E
1E
A0
9D
F6
76
95
57
C9
AD
89
AD
A2
F6
43
30
D3
94
71
E2
F9
FD
C7
CC
8B
47
4E
8C
34
AC
3B
F2
4A
5B
0F
C1
51
25
98
9B
52
A1
C8
74
17
8B
25
6A
9F
16
CC
18
93
13
64
9F
DB
32
AB
8F
5F
66
02
29
42
91
6A
13
36
82
2E
08
A3
77
FD
3A
82
A2
25
A2
38
71
3A
4B
05
1F
6A
60
D1
95
6F
B0
7C
F1
5A
3E
03
44
D1
B9
47
80
42
6A
77
BF
25
79
E1
CA
9B
99
BB
56
64
40
F5
4F
20
46
64
10
77
60
81
51
1E
04
15
70
3E
DC
70
00
C7
67
3F
6C
60
A0
B6
7C
B9
F1
52
9D
B2
C7
6C
52
8D
51
E2
84
31
E4
55
D0
68
EB
C0
26
47
B0
A6
8E
97
65
7A
77
85
B0
73
BE
22
45
DC
54
8C
C8
26
9A
99
89
9E
4B
ED
74
9B
D5
DF
DB
7C
A6
0B
A2
B5
22
88
AF
19
8D
E0
0D
CC
82
D2
28
56
DF
70
FC
F9
8A
05
17
55
72
0B
70
C8
6A
CB
C4
91
56
E6
C6
F8
EE
F5
91
FC
55
1E
48
57
71
F0
2D
D0
E0
AA
49
EA
2F
E0
BF
22
6C
AF
6A
56
FA
AE
67
D0
14
AD
48
83
23
5A
FF
F8
F8
C7
D0
E9
37
7D
39
97
A7
02
02
57
63
41
F9
4F
71
E3
25
EB
11
0D
3C
A5
3A
04
A8
DD
DE
27
56
57
6E
A6
C0
25
A3
7A
3D
CB
FC
BF
A2
DF
80
1B
AE
71
7E
54
DD
0F
E1
99
34
9B
1D
5D
F9
7C
04
CF
53
F3
F5
93
98
18
8D
55
63
0A
94
85
69
95
20
98
86
1E
6C
E3
AD
CD
FC
62
E8
9A
3F
61
96
C3
B0
69
36
25
7C
4F
BE
8A
24
A1
14
39
A7
FD
4E
47
15
54
E6
01
B8
13
4E
34
F5
B7
4E
B4
98
64
F8
C9
4D
AE
6E
4A
7D
AC
54
22
CE
E8
DB
F5
65
A9
BC
FB
7D
22
7C
B5
B6
4B
6A
2B
82
38
60
9A
1D
D8
E3
EA
06
D2
B4
04
FE
88
A6
4C
F0
01
C1
D6
2A
FE
51
27
A0
4D
5D
D6
18
47
82
1A
FF
62
35
9C
BA
98
07
40
EA
3B
C4
69
44
EA
35
B4
6B
77
0A
15
F5
DB
BD
15
A9
9A
6C
41
61
6E
DC
E0
50
91
FD
8A
A9
84
4A
14
3F
8F
FD
03
F9
B2
38
E5
A9
C2
7A
1E
1E
B7
B4
47
D1
A0
08
B2
8E
64
13
5E
75
90
68
9F
94
32
33
53
41
B0
D7
BB
E2
8F
20
0C
D1
1A
AA
6F
52
DE
36
A3
FE
BF
D6
0C
A3
69
EA
99
79
D2
B8
8D
85
6B
60
46
9B
B7
81
FD
C6
21
89
18
BC
B4
07
8E
12
BE
B1
91
FD
07
1D
20
F0
88
39
E9
DA
71
F6
DF
5C
D7
A6
77
0E
A7
F5
55
49
FE
ED
85
32
74
93
C5
B2
C4
D6
2F
4C
73
D0
BC
7B
89
26
D6
7B
9C
35
57
F3
5B
4F
82
83
C4
57
4C
42
C4
51
F5
B8
64
3A
EB
A8
90
9A
74
83
EA
B1
7F
F4
57
D5
EF
73
8A
C6
E7
66
95
E9
69
D9
C0
35
9C
04
06
11
3C
EA
CB
A7
12
DB
C2
07
DE
2C
38
DD
A0
0F
32
0F
02
3D
56
69
23
6B
D2
0C
C5
12
C1
E1
96
47
72
53
B1
BD
7A
43
18
BC
CA
76
69
82
D4
89
11
86
19
94
43
EF
7D
E6
DA
D0
72
1F
62
B3
80
79
7A
72
4C
AB
AF
46
6F
47
83
B9
3E
6C
BC
92
75
4D
98
0E
61
5C
7D
5F
C2
D8
AF
B5
77
91
E8
78
8A
E3
6A
56
0E
9A
1D
FD
61
20
37
1F
0C
73
31
01
40
4A
90
22
26
8D
01
68
E5
30
9D
DD
41
06
D5
4C
69
BF
22
F7
D9
BF
75
BB
5F
2C
5A
EB
1F
0C
6D
DF
D6
7D
81
7C
8A
02
64
F0
B2
82
4D
74
08
A2
40
F1
E1
E2
68
3B
22
5D
76
01
09
50
6D
A8
DC
5A
08
32
57
09
2E
61
8C
13
D1
BE
15
9E
B2
9D
C0
72
0E
22
D5
F6
DD
77
D4
D3
F8
5D
A3
E5
86
00
BF
0E
B2
96
97
61
78
A3
F4
C9
E2
89
E8
14
A6
28
07
34
CA
5C
AA
27
53
FE
7A
CB
DC
9E
31
E2
1E
70
70
50
87
87
31
7F
AB
A5
C8
0D
AE
30
A1
D4
D9
28
88
23
04
B3
CB
D7
31
C5
23
8D
E3
D4
EF
81
C4
DF
52
CB
E7
03
CA
12
29
13
9F
57
C3
C0
AC
1C
69
B4
C0
ED
E7
0B
45
99
50
E8
A6
B4
3C
16
B5
80
75
87
CC
DC
0B
16
6E
B4
A9
8D
8B
ED
CE
B7
89
B7
EC
C9
24
53
54
E9
6C
25
51
93
59
0D
29
8E
0E
1E
96
5A
7B
21
F0
69
55
1A
77
60
87
C5
98
90
FC
04
DA
A0
D7
AE
0A
C4
53
DB
D7
2C
69
80
3B
F7
1E
51
D1
19
F2
41
03
C7
DB
FA
A7
E2
3F
BF
F3
BB
43
4D
DB
9B
7B
65
DF
4F
C1
36
FB
AA
36
B6
21
D4
87
72
6E
F9
33
F1
40
8F
6B
68
F1
2A
A7
64
65
6B
31
C0
86
2D
A6
E5
FC
E7
9B
77
11
51
AE
B2
A5
B5
A4
93
2F
57
04
EF
66
EF
D7
D8
99
FF
BC
7E
EA
6E
BF
F0
1B
E5
55
97
4C
70
8E
DD
41
BC
0F
66
F2
33
7A
A1
0A
FE
10
F1
6E
68
49
87
E7
85
86
51
73
C5
C1
0E
2A
96
25
F6
86
34
53
47
70
E2
2D
E2
95
27
03
1F
A6
94
90
94
7C
59
9B
E3
5F
A1
B4
52
E6
F5
E1
90
0B
86
06
11
3A
D9
D8
2B
3B
85
8D
50
2D
11
F0
53
25
00
67
21
DA
82
84
B9
A4
B8
8B
0A
2D
EC
1B
B8
F3
A1
49
AD
FB
A1
58
B6
A6
66
87
53
F7
F7
26
9C
77
0D
3D
D1
10
41
0A
34
79
16
BE
26
82
59
5E
F5
7B
27
23
F6
48
FB
2C
6E
E1
33
42
58
AA
E8
74
A2
76
31
F3
06
F2
7E
BA
EB
14
F8
91
16
D2
6F
8C
CD
16
2F
43
DE
AA
EF
CD
0C
A3
8F
E4
CD
F7
D9
EF
ED
8A
63
73
FD
61
AD
68
F5
26
7A
8B
78
69
97
C5
00
46
88
5E
71
F7
AB
FD
1A
BA
61
68
32
BA
D7
9F
C5
BA
93
42
9B
C0
2A
10
66
24
1C
5E
0E
33
A3
8E
FA
AB
6C
EB
23
98
68
BD
D2
49
A5
84
84
FD
A4
C9
37
B7
8B
53
F7
35
E3
DE
DA
7F
BC
68
33
E0
76
AD
0B
62
18
AE
7A
00
EC
CD
C9
11
D1
CD
8E
F5
16
46
2C
21
19
A4
D7
7C
02
31
7C
3E
19
2F
9E
0F
5C
2A
F1
F4
58
EC
74
C4
39
BD
56
8A
0B
64
00
A1
2A
AC
43
C3
D0
9A
C0
52
4B
BC
11
E4
6B
2F
73
47
D9
E4
BB
B2
50
AF
F6
09
EC
CC
14
77
B1
94
99
5B
C0
5C
9F
11
76
DF
E3
41
1B
74
A5
06
24
98
CD
7D
FC
08
AF
CD
37
26
56
A3
72
EA
9B
A3
FE
B4
7F
3F
90
9E
D0
86
FD
33
47
98
28
6C
1E
CC
84
6B
C9
00
F3
F9
4D
AA
9F
24
CD
91
8E
E8
B5
0D
1C
B4
CC
2C
D2
1C
32
4F
CF
F9
67
77
E5
05
C3
E9
F0
0D
6A
63
86
37
8D
A5
DB
DA
B6
EA
43
EB
77
DF
1F
C3
8C
71
5F
3E
40
AE
B8
27
A6
1D
AC
E9
87
1C
76
71
FF
7C
28
0C
A1
84
67
D8
EE
2A
43
E5
89
E3
28
95
D4
07
54
95
35
8C
3C
5B
29
69
C5
30
05
BB
21
85
B8
CA
11
D9
CE
F8
31
3C
A2
F5
A1
AC
58
49
C1
AC
D0
95
C1
85
A1
7E
61
4B
67
A6
FB
EC
E1
9D
F1
19
E7
83
73
35
FB
24
F1
1E
99
12
4A
71
DB
8B
9E
2B
A1
DF
30
C2
DD
11
8D
C4
37
09
31
99
26
A2
32
8D
A5
25
42
21
CA
B3
BF
E3
45
89
D5
A0
94
F3
4B
B5
52
FB
F8
B0
8D
05
F4
44
8E
A5
5D
34
C8
10
41
ED
B5
03
8E
FF
36
CD
63
FB
D6
B8
1B
EB
2B
E6
20
FD
62
98
2D
6F
1E
A2
33
2C
C7
11
E1
0F
A1
A2
7D
D6
26
8B
56
DC
D9
39
58
2F
71
F3
9A
1C
5A
3B
99
3C
53
47
2B
F1
69
DE
9E
B0
6F
FF
40
90
21
3D
E7
C7
48
BD
24
A1
76
FC
51
67
6F
6B
03
49
26
1C
05
FA
E3
B0
6B
CC
0F
89
FD
FE
08
BD
0F
AA
7A
76
F1
42
B3
95
64
A9
11
35
90
01
20
13
CA
C7
AF
50
41
13
80
2C
5F
0F
36
DC
8E
BE
19
1D
E8
13
13
5A
D6
46
6F
BA
6F
01
6F
7F
82
0F
12
CC
56
41
9C
17
D4
9D
C4
B4
2C
7A
10
3A
B8
AA
D7
21
3D
6A
FB
93
30
EA
CD
1F
6B
BC
1E
6D
4C
B0
BA
22
72
D6
BA
C6
F3
FE
FA
A0
F8
8B
5A
30
B5
B2
D1
72
9C
4C
86
4D
B7
D3
EC
A2
10
8B
90
DC
BB
CA
7E
AD
20
B8
F4
94
36
6E
B4
AE
79
8E
5F
AE
C0
B0
A1
DD
7D
A7
AA
B4
FA
16
D6
8A
21
E6
E6
5D
30
E5
8A
D1
1D
FE
E5
D4
ED
19
02
E6
27
E1
15
68
12
36
C5
0F
5D
EF
43
D7
85
99
E2
27
00
48
04
B0
AD
0E
01
4B
8D
66
9F
FA
FF
21
60
A7
83
F5
8F
15
AB
D4
A4
88
43
67
E0
48
80
42
EF
00
0A
73
31
38
02
B2
03
0F
99
22
89
18
C3
69
3F
C6
DF
4E
5B
0A
A2
7F
13
65
66
73
2E
67
35
9D
E7
BF
91
98
77
13
CB
FA
A2
E4
9C
AB
7C
E0
94
3C
26
F3
0A
02
7E
2D
01
11
12
E8
04
C0
CF
B9
DE
36
F8
EF
4F
F0
82
9A
6A
A4
FE
87
CF
FA
E7
E3
B6
8D
57
41
0F
55
EE
91
E6
80
F9
6A
C1
48
A3
1F
FE
1B
8E
CD
8B
90
E7
76
B4
65
7D
03
E0
E4
66
16
F1
3D
D7
81
12
45
92
78
46
0B
62
87
D3
85
26
51
21
34
9F
2C
44
06
22
78
EC
1F
FB
4C
83
E1
E2
F5
9F
3A
F6
31
FF
08
2A
C5
93
0C
CC
E6
12
72
B7
B3
26
D6
5F
EA
5D
02
E2
C9
A1
5D
95
A5
BF
F7
1A
DE
B1
90
8F
31
18
39
76
2B
C6
C3
91
58
B5
C8
8B
5C
1F
6A
C6
FC
EC
29
45
0E
06
5A
33
45
D1
CD
A3
03
DD
B3
B4
75
6C
AA
20
B2
ED
31
8A
23
79
95
FF
18
80
45
94
EC
EE
59
7A
75
33
2D
3A
85
7A
5E
08
D7
91
3C
CC
7D
66
6C
B0
D4
1D
BA
77
17
D0
F6
AF
D0
BB
C4
3C
2A
9D
37
1F
51
E4
D9
56
DF
B7
DE
36
C8
9A
83
C6
80
6F
F6
D4
0D
30
CB
A4
80
41
D3
D0
7D
17
8D
27
35
44
C6
06
A8
1F
DC
07
57
3A
BE
9F
54
C1
E5
54
B0
5B
A9
3D
0C
F4
61
0C
B6
B5
5D
B3
4C
6A
5A
01
2E
A0
87
56
3F
E3
DE
16
9D
1C
36
71
5D
9B
46
8D
77
6F
4B
03
E3
2C
8F
19
61
6C
4C
2E
56
26
AF
04
46
B7
DB
06
1A
39
9C
38
D5
52
29
B2
6E
EF
BF
65
DE
8A
E8
42
37
F7
DB
18
E4
A8
C6
BA
4E
F6
3F
15
2D
9A
9B
C7
53
B7
7F
A8
8A
29
DA
78
98
19
5D
F7
24
C5
B9
DB
3C
14
73
A0
3C
BA
DB
0B
30
9A
A0
DD
B4
BB
24
87
F2
24
AF
FC
CD
09
F4
E5
A2
D1
5C
46
16
95
A1
D3
2A
95
F3
E6
CF
4E
71
7F
68
91
DC
9C
CC
80
A3
3F
24
D2
BB
71
5B
30
D7
7E
81
B3
44
18
C9
66
6B
73
7B
DE
D9
CA
AD
CB
C9
95
DC
25
B2
29
25
D5
E8
CA
28
23
BB
03
D3
12
01
D5
46
C6
6D
8F
AC
58
82
A7
B6
DB
F1
E3
26
3A
F9
83
DF
2B
2C
84
80
94
CE
28
37
0A
AC
8B
9C
2D
E0
62
73
CD
71
9F
A5
73
C6
DB
CF
37
3F
75
F1
B8
78
50
63
24
55
63
38
A3
0C
F0
2D
38
FB
4A
E5
5B
2C
D9
A8
1E
F8
CD
11
3F
28
60
F6
E7
56
68
1F
4E
38
02
F3
0D
E6
AB
31
72
1B
DE
2A
96
A8
8F
71
55
E8
99
F3
61
E6
84
20
8F
65
96
F6
3B
7E
96
09
37
18
7C
C4
7E
A8
75
70
43
D4
1A
5A
FC
2A
4B
D1
92
65
44
73
CB
49
13
DA
2E
2A
51
E9
28
67
72
DF
FF
6F
24
FE
97
19
EE
5A
6D
89
34
EA
33
00
3B
45
E5
00
39
30
C9
CC
8B
77
76
5C
E0
1F
43
D2
7E
C2
C1
22
40
D8
BC
AF
B3
A9
B8
67
13
6B
E7
CF
30
4C
4F
E9
FD
98
36
08
8F
2C
E4
EF
CB
A7
41
CA
E9
83
6C
AA
DB
A8
D9
0E
D2
11
F6
65
FC
5D
B4
AC
2A
83
16
A7
9B
CC
2F
AA
78
93
19
C4
BA
DB
0E
23
DE
FA
4D
39
23
A6
C8
75
37
3E
5A
B3
1B
8F
E0
C5
92
76
EC
AE
C2
9B
D8
BA
AE
72
FE
E8
CD
8C
8C
2B
07
59
E4
AA
80
2C
9F
37
EA
79
6B
86
88
CB
CB
9B
C1
38
C9
03
53
21
3D
82
13
BC
EA
60
C8
F6
0B
4F
D0
70
79
D0
1C
98
87
87
92
72
8D
9A
BD
D8
B5
FE
90
FE
81
64
A0
3F
66
33
7B
D0
14
C3
47
9F
93
97
8F
8C
E7
2C
A5
EE
33
B7
E1
40
D1
1E
98
07
9D
A9
85
9E
8D
A5
5D
73
59
58
C3
ED
9C
8A
0C
AF
A1
1C
BB
08
C8
E0
77
7B
17
D8
3B
69
76
53
F0
93
7C
F5
B2
89
1B
8F
7C
F4
68
C0
61
84
CA
ED
B3
EC
89
EE
74
D1
4F
6B
CC
E6
C3
87
CF
BA
5B
3F
CD
57
B5
FF
61
50
0F
5D
C4
F7
9D
A5
FB
E8
12
2E
54
1C
9C
48
6D
6B
34
BA
D2
77
C1
21
B1
9C
E1
FF
74
16
7E
55
E6
0D
32
2A
84
50
4F
FF
B8
E1
AD
8C
7D
CA
54
6B
B5
08
A5
07
00
E6
A9
31
03
0A
B0
F7
A0
AF
CC
06
3C
7E
B0
41
4E
7F
C0
86
E0
EE
92
DE
38
67
C9
6D
EF
EE
F5
6F
54
1E
21
D7
A8
51
4E
C8
80
9A
4E
3D
99
7E
FE
67
7D
3E
6E
DD
AC
80
3B
64
67
84
52
D7
F2
C7
C6
C7
65
67
1E
8D
39
ED
D5
39
07
A3
F6
20
A1
74
08
9E
33
F6
FB
5F
F6
B7
44
DE
BB
16
35
2E
5D
7B
75
42
63
13
4F
1C
80
A4
D5
08
C7
4C
A8
E8
40
30
06
F3
A6
81
D3
1D
B8
97
7B
F4
2D
30
A2
0A
2B
97
CC
0E
2A
9B
AA
2B
BF
00
B3
06
CC
DB
6E
8C
8C
F4
00
B2
F5
53
4F
2E
6A
4A
A2
17
FA
C4
A1
A6
DB
ED
34
85
08
5F
30
47
DF
63
CD
2B
BF
BB
37
CB
2F
B7
FD
A4
8A
CD
52
74
97
74
0B
12
B8
2C
38
13
99
EC
19
21
CB
C9
E8
2A
AD
35
D5
EC
70
8D
37
1F
C4
B4
44
CF
01
16
C3
19
0B
4F
AB
43
FB
63
D7
15
CF
70
B6
1B
B9
1F
C5
E6
D4
1B
52
C5
28
09
64
6C
3E
28
BB
BF
BF
FF
58
4A
CE
83
0D
49
66
64
DE
B6
54
15
51
8E
B4
96
F4
08
31
C7
4D
D9
50
32
C6
0E
DA
01
4E
19
80
26
E3
CE
2A
71
98
10
55
F6
46
2A
8B
17
38
BF
2E
AC
48
DF
F3
15
39
C4
C7
7F
52
22
00
20
BB
01
C7
1F
4F
71
10
67
01
E5
DE
C8
8F
E9
5F
47
29
0D
74
F1
6D
E7
86
26
2B
CE
25
FE
70
A5
9E
AB
26
E5
4A
F6
D6
DA
DD
58
40
3B
A0
4F
A5
7F
17
4E
0D
0B
BF
FA
72
C5
A0
1E
13
45
9C
03
6A
BA
2F
11
20
F9
87
76
54
E4
4E
14
A0
6E
E3
C5
6E
7A
93
FB
05
D2
75
F8
17
95
96
AB
5A
B2
2E
44
EC
DD
D5
8C
57
DC
83
2B
41
51
BF
61
40
22
A6
2E
1D
B9
A9
A2
0B
9E
1A
A2
B3
30
CD
8D
62
7C
51
CF
D9
A7
DB
B0
03
DE
5B
C4
B0
9A
A5
70
3D
CB
1E
DA
04
47
FC
8F
65
97
B2
98
47
FF
A5
2A
FB
76
79
55
9D
D4
85
21
33
61
65
63
7B
8B
53
38
D6
F1
92
5B
B8
0F
6A
9D
26
9C
B5
ED
1C
DA
97
97
D0
90
6C
EE
E5
72
8F
98
53
74
7B
4E
7F
4E
07
D6
BF
19
B1
F7
A8
9B
14
4E
B8
49
BC
54
A3
D3
6B
F3
E4
58
61
49
4A
70
61
1D
65
5C
EB
64
2A
72
BA
69
0C
EB
E0
34
07
74
03
3F
3D
3F
13
60
92
FE
D3
F6
D6
B5
BF
A0
A5
A0
3D
8A
7C
A9
6F
26
9B
A9
0F
27
15
6F
DC
9C
63
5F
5B
20
1E
EE
00
30
6C
54
A7
C3
89
E6
E3
AE
07
A1
B9
03
CA
A8
AA
E5
D1
39
8D
66
29
E9
82
0C
C8
5D
AD
66
CB
2D
16
B8
01
3D
FB
0A
A4
5E
39
2B
7F
72
AE
C9
9A
D8
2F
EB
92
3C
D2
3B
A5
D4
C7
ED
B2
F4
D3
FD
A2
69
35
23
27
B0
AE
4B
8F
67
F6
8E
59
24
D8
73
7D
87
DE
8F
43
30
4A
68
85
91
D5
B7
06
28
34
28
11
EA
CB
B8
1A
F9
83
29
E0
F9
38
B9
9E
90
AC
9B
97
0B
AA
5A
BB
74
42
C0
85
97
F7
0B
3F
AC
B3
D0
16
FF
09
B0
78
0C
5A
D9
86
12
12
A4
22
3F
BF
39
CA
E9
13
05
DD
D5
46
E2
EC
BD
6E
AB
E9
A1
FB
7F
20
84
B0
19
11
8A
72
17
1C
04
3B
BE
C3
7A
77
0D
E3
0A
93
40
5F
59
A2
CB
96
90
F6
00
B2
71
FF
52
76
2F
EB
07
39
DD
9E
D5
62
59
13
A5
53
0A
33
B6
94
46
76
73
1F
98
BE
35
A9
34
B5
DB
26
35
AD
1C
E4
19
A3
9E
76
C1
F3
58
9A
87
7E
6D
11
31
A3
26
F7
99
19
96
B1
58
4B
DA
0C
81
35
B2
36
63
4E
9A
FC
71
B8
F2
B2
2C
CB
CC
33
C9
B9
C4
7A
DC
6A
F1
F5
04
07
27
DC
D2
81
68
D3
37
9B
89
1A
69
A4
96
5B
DC
08
8D
88
53
DA
3B
9C
13
80
96
70
6A
07
E5
EE
8E
8C
4A
E1
8E
33
34
45
4E
3E
DF
37
62
F5
12
BE
7D
20
C7
51
7A
82
6D
0D
82
84
FD
6D
0B
63
DB
1A
6F
A6
7B
7D
59
2F
42
27
ED
A1
DE
CF
16
71
0E
14
11
55
E5
0B
57
D2
98
5A
D6
16
47
62
F9
A2
FC
E8
C8
F7
E6
A1
A6
A8
48
14
CA
A7
63
60
98
F1
F4
29
C6
59
B4
9E
AC
CC
78
02
62
3F
E4
DB
61
60
44
AA
D7
AA
CB
FE
D2
94
92
1C
BB
75
FD
D3
E7
71
7C
2D
4B
B0
4B
77
FC
43
F9
DF
02
5E
3A
E4
3E
FE
0E
96
28
59
14
7B
6D
26
17
A8
1B
94
FB
82
86
F7
30
51
27
FB
48
A4
BF
C1
03
41
9F
BD
A5
5E
3C
33
74
E4
0D
08
DF
FA
AE
77
23
49
8B
9E
4C
91
16
FC
62
BD
77
2A
E1
B6
6C
64
78
8B
A2
9D
69
5E
51
5D
C2
DE
E5
22
58
13
19
FB
DD
24
1A
A9
36
B0
25
18
ED
1C
C3
4F
53
AF
33
4B
BA
55
68
A4
33
39
81
76
97
E7
18
70
7A
B1
EB
D7
55
85
00
0B
B5
A5
A4
23
42
E7
F2
15
16
A5
E0
50
7B
C8
74
2E
82
76
24
99
DD
BC
89
D7
ED
F5
2F
C3
FA
AF
4E
30
D5
72
D3
97
D9
45
2C
6F
6A
8C
40
65
D4
34
14
D6
2A
B8
F0
87
F5
F9
DF
62
6E
8E
A5
E9
BD
74
99
12
66
EC
29
C0
B1
D5
AF
9B
E1
6F
81
36
24
15
8C
CE
4D
FC
D6
C2
76
35
A5
64
43
CA
CD
80
BE
E6
13
A5
52
BC
E5
83
12
14
9F
73
04
A0
29
A8
35
36
F6
02
B2
4C
45
A8
01
6A
8D
C4
B4
DA
C5
F3
41
58
18
13
94
7D
17
26
11
36
1A
95
56
C3
BD
0B
79
34
8D
AC
00
52
D4
82
3C
E1
C6
71
3C
0B
E4
FD
E3
7C
90
F8
79
27
9E
0A
DD
38
20
B3
7C
5D
3E
75
11
4C
A1
92
1E
F6
94
DB
57
DA
CC
13
66
30
90
C9
2C
A1
41
25
48
60
AF
A6
18
4F
D9
14
2D
98
0A
BE
64
2B
D0
02
A1
E4
5D
79
3F
A9
0C
25
59
1D
6E
05
3E
30
AA
06
10
DA
2C
A8
A9
86
3D
56
9E
C7
95
82
72
E5
04
94
4A
E2
8D
09
0B
19
AE
E5
B6
9C
6A
74
4C
95
FB
DC
EF
A7
05
18
AD
C2
EF
CB
09
04
CD
FB
69
52
0F
33
B4
1C
BC
3F
B6
EA
A4
EC
07
8F
E1
D3
A4
5C
30
13
83
B5
AB
B1
F7
1A
FC
80
9E
4A
FB
88
1C
8B
3B
50
27
78
0F
5D
E2
34
CA
69
43
2B
BD
67
07
6D
FA
0A
A2
25
3B
19
C0
B8
19
DE
82
94
E6
1E
9F
A2
EE
47
9A
7D
24
FC
31
6E
E6
F4
19
23
DB
A0
10
55
2B
32
FB
E6
CB
3B
1E
64
99
20
78
00
BE
98
22
2C
5F
3C
2A
03
B8
DB
F2
1E
50
8B
C1
AB
AC
51
81
57
03
FC
BD
4E
B7
5C
32
D0
FC
2B
50
3B
43
F2
E7
22
AE
91
A5
E7
ED
17
85
BD
23
C7
E8
4F
98
E9
26
1C
65
63
EA
9C
3F
9D
ED
BC
48
BD
77
0B
30
DE
AD
5E
F0
D2
C5
5D
6A
CB
9A
0D
12
02
DC
2A
6C
82
C6
51
65
31
6E
25
4E
DB
61
16
18
58
A1
C8
B6
CE
A7
26
20
EC
03
0A
37
1D
97
C9
A0
F3
74
8C
F5
BA
5D
DB
6B
4B
80
39
A6
61
CF
3F
39
F0
87
6F
3E
AE
16
DF
1B
99
69
D2
37
81
1C
57
F4
10
63
6A
4A
40
C5
36
0C
C5
EF
32
A6
3F
F1
5F
AF
F9
4E
6E
27
E4
CD
C2
FE
B6
15
B5
B7
B1
8C
2C
41
6F
16
0B
2F
5B
C1
BB
A0
31
6E
C6
F0
DF
A5
1F
58
73
0D
00
D8
5A
42
56
91
D7
8B
C8
08
97
74
C9
86
0A
55
35
E5
96
71
05
47
5F
4B
B7
BE
70
57
97
64
E4
17
BC
BF
D9
92
D0
31
9D
18
B9
B4
0D
03
BA
97
D8
6F
FD
EE
60
82
B6
3F
4E
ED
7E
3E
C4
95
22
29
2C
5E
68
85
70
B8
36
8D
50
70
C1
DD
F3
FB
F5
4B
EB
72
B9
CB
74
EF
8B
42
5D
89
01
A1
9E
A3
4A
4A
82
32
4F
72
6A
06
80
3B
F6
C1
98
69
3D
0D
34
A8
FF
6D
F3
F4
DD
FE
B6
BA
07
37
DB
25
5B
A6
EF
5D
58
BF
4F
43
45
4F
FE
BB
91
16
A4
4E
A4
58
76
23
45
E9
97
A2
68
CE
DC
EF
85
38
95
60
5E
04
3D
36
43
0D
F9
08
DC
77
43
ED
0E
67
BB
32
3F
B1
D5
05
1B
ED
27
03
3B
84
72
40
3C
87
21
1A
0C
DE
D0
CF
6B
4A
58
C8
41
1B
35
CF
03
71
81
C2
A2
D7
47
3D
44
EF
C0
FF
F3
B3
BF
AF
BA
60
49
46
BF
99
96
AA
63
6E
F2
25
09
A8
74
8C
99
76
CF
BB
CD
96
79
91
05
B9
10
78
EC
4F
A7
27
30
70
ED
6F
8A
03
99
6D
F1
0C
12
7B
34
07
87
4D
FD
D6
88
4A
ED
81
5B
72
BB
EB
6B
27
BA
92
CE
6A
83
3C
59
8D
BF
73
7A
31
FF
0D
2C
B3
94
33
80
11
8A
88
DB
F7
8A
B6
E9
C5
21
D4
6C
5B
E7
BB
46
EA
77
1F
F7
B6
12
F1
67
91
7E
13
C4
92
C7
C4
23
D1
CD
7E
48
D7
B4
B1
1C
55
06
08
31
6D
43
F7
D7
3A
96
4E
71
29
BF
58
3A
BE
EC
7F
D0
33
C3
74
84
10
72
4C
67
A7
7D
03
7C
03
8C
2D
F0
4F
A4
47
0A
BB
15
FB
64
55
D3
1E
93
3F
1D
E3
F2
61
D7
F6
F1
CA
C2
D9
F1
C0
5C
ED
43
68
9B
B4
38
BF
7B
C2
FA
11
3D
DE
E6
90
7D
F9
50
1A
5C
C2
FB
B4
39
6D
FE
7B
C6
6F
BB
A2
DC
7F
8B
F7
B3
43
37
AE
85
B1
3F
42
10
A5
52
0D
1E
22
A7
FB
65
23
2F
1E
10
AD
19
56
9C
55
78
F8
54
83
70
87
46
27
B5
4B
58
75
0D
E8
9A
E0
75
39
82
9D
B4
67
40
63
05
D0
90
9F
A6
AC
74
9E
24
48
A2
14
4F
68
BB
84
34
94
79
C1
FC
94
21
F2
4D
24
0F
81
0B
CF
64
91
1F
74
B0
45
A0
A4
63
44
6C
85
D9
3B
6E
14
3F
22
28
39
63
A5
4D
05
17
1A
A9
A6
1B
34
F5
FF
45
94
F3
75
59
13
99
3C
D7
85
42
30
40
30
C5
00
D2
6D
B9
B5
92
86
3A
29
20
63
4F
BB
18
C4
3A
DD
D8
AD
D3
B1
40
EC
6E
97
F2
30
48
B2
E0
8D
32
32
7A
6B
67
8D
71
22
36
11
05
06
4C
9D
4A
06
FB
A3
33
4E
D4
F3
BA
C2
0B
2C
72
D3
5F
D2
E0
11
84
DA
FD
6C
E7
EE
0E
9E
80
93
24
4C
B1
EE
D3
2C
11
86
FA
66
FA
34
A8
85
E1
9B
D8
C0
ED
38
51
F2
92
CE
DE
FA
3D
6C
18
3D
7F
BC
09
B0
2A
5C
5C
BC
63
D6
A2
DD
8B
CA
E2
EC
E5
3A
2C
53
F2
FD
C5
04
4C
23
7E
09
0F
16
C6
0E
52
4F
3F
FD
2C
1B
39
0F
72
5B
6C
7D
A5
CE
E9
0B
88
95
DE
FA
12
23
7E
DE
C6
7D
67
55
13
AD
E3
E6
7D
A2
63
29
3E
1C
B8
30
F7
A4
2D
1C
F2
96
A7
FA
AB
05
74
3D
A8
72
9C
EE
6F
83
C3
03
B1
27
69
AE
49
4C
57
07
E8
8F
B7
5F
B3
64
FB
25
7A
23
9F
A5
A8
93
63
D1
85
7F
3F
75
82
83
F8
B3
2A
E1
E1
F3
AD
B8
7B
15
C7
B2
F4
FA
97
6F
9F
91
12
BE
B7
3B
D1
9A
8C
D7
99
4B
CC
9B
4E
44
CF
F8
A5
30
6C
D2
69
67
67
B0
99
DB
2B
B0
CA
4A
C2
5D
89
F9
18
DA
13
24
31
2C
EF
7D
47
BE
41
96
36
66
47
22
B8
30
09
9F
60
23
FA
0B
53
45
D6
95
22
DF
0E
BA
39
A1
5E
EB
4D
CD
E8
15
0B
AA
2B
C2
90
F2
64
C9
A2
EE
E8
83
91
63
0E
64
28
64
7A
CA
C3
08
04
7D
2A
E2
E8
F7
2F
50
8C
BB
7A
38
FD
8B
AA
E1
D4
CD
4F
3C
D0
60
1F
5E
45
C7
43
3F
11
86
C7
95
83
71
F7
EB
E9
A7
BC
F5
E2
B6
AD
5F
C1
D8
C0
15
25
90
D2
75
70
71
53
35
B9
16
F4
4A
1D
3C
60
20
2D
D7
8C
96
FE
C8
0C
60
FE
39
3F
40
91
80
D5
36
90
27
2B
80
19
FF
36
52
95
AA
1C
32
66
FC
D3
14
54
DF
2A
D2
27
B6
B3
A5
70
72
65
81
72
BB
38
82
62
E3
83
FB
62
39
CD
78
63
6A
2A
4A
E6
7D
DE
BA
DC
88
0D
83
BF
40
A9
AF
32
8E
B0
25
C9
68
27
AC
CC
2A
27
AE
E3
75
A6
C7
5F
51
91
C5
4E
EF
00
AB
F7
8D
AE
36
4D
D7
65
FF
E6
96
A4
2F
7E
4C
5B
CA
F6
03
F9
5A
F8
1F
A1
D7
F0
B2
1C
BF
21
9C
EA
98
A9
18
4F
76
70
34
F6
D6
4A
1A
85
49
E6
61
93
5D
E4
0C
37
5C
AC
58
B3
1C
8A
4F
5B
2B
6C
C5
43
95
5E
12
8C
4E
C7
02
A4
91
9C
A9
5A
03
8A
6E
E0
EE
FA
97
CA
26
6F
FD
C3
79
CD
9E
24
B9
E4
E7
CE
C2
7A
DA
90
C1
5C
B4
D2
79
DD
AD
FC
E8
9B
5C
56
15
73
A1
BC
62
1E
FF
5B
6B
1D
FF
A4
81
66
F3
C3
60
4D
D3
A1
2A
07
F4
23
65
21
9F
CD
3C
7B
A3
D1
6E
C4
0D
50
63
8C
2B
4E
2A
AA
73
2B
90
E6
6F
71
B3
C2
92
5D
4A
06
00
2F
A7
1F
7C
63
1A
9F
B5
08
E4
42
D8
C7
4F
83
95
F9
AD
88
A4
BE
EE
93
AF
22
D6
C1
FF
A0
48
80
4F
6F
1F
4B
53
BA
6A
88
42
CE
4A
9B
15
19
9E
2B
92
CC
33
B7
0A
A2
CA
39
44
20
7A
C3
40
42
C3
0F
32
63
DA
05
9D
C5
0D
5F
13
D7
7A
A9
71
99
54
83
E5
07
BA
6F
29
05
28
ED
A5
22
31
66
E5
74
F5
97
57
50
1C
74
95
A9
54
28
00
4E
51
F1
67
25
F5
CC
AD
2F
BB
56
B4
63
C4
DA
06
75
C0
6B
69
35
82
41
05
1E
35
1A
47
09
C3
C7
D8
94
39
BF
3A
AE
0C
67
5D
47
3D
92
2B
81
EC
B1
76
2C
9C
60
E1
9E
21
67
3C
D6
01
03
60
44
4A
B8
59
03
F7
13
31
83
FA
0F
4B
B7
21
F6
B9
8D
27
AF
39
43
8F
9A
61
30
81
1D
87
03
A0
67
C7
6A
9F
A0
EE
16
33
9F
1A
AD
2E
E5
E5
CF
5B
1E
DC
02
4D
95
C5
5D
B0
A6
0D
B1
43
14
34
63
FB
7C
4D
1A
9C
BB
B1
50
DB
4B
7D
89
B0
E2
D9
8B
80
35
0D
4E
4B
52
2B
7B
78
B8
AC
3B
4D
61
1E
C8
5D
EB
63
79
27
94
49
82
5F
47
8B
8F
A9
E4
9A
AA
9A
27
78
65
F9
23
60
F1
5B
8C
AC
28
6D
4A
71
4A
B5
54
44
5C
68
0D
5E
47
D4
6A
56
FE
CE
70
28
E8
17
20
CD
90
C3
AD
01
9E
BA
2D
47
A7
F7
38
72
2C
0C
36
09
F4
C3
E7
BB
18
D1
91
96
20
81
3E
88
18
DE
D6
28
21
03
A9
3F
3D
56
06
65
CD
BE
57
79
4A
0D
02
BE
50
6A
F9
E8
BB
0A
FE
5B
0B
BC
64
A3
1A
BA
4B
BB
3D
74
7B
FB
4A
01
E0
97
40
B7
91
0A
44
13
49
14
FD
C2
7D
39
4D
FB
14
D8
38
F8
FC
D2
32
C7
0E
F0
BC
09
6B
86
8A
CB
9E
4A
02
AF
D5
C6
42
9E
5A
C0
E0
57
79
AD
D3
0D
06
8B
86
82
DD
38
C9
6B
A8
05
F4
93
0C
FF
DE
2A
C9
60
59
1E
A6
1B
3C
81
5B
9D
58
54
CA
AB
E2
50
B6
E8
52
14
A0
9C
FF
C9
21
74
DC
AD
F3
3B
57
3C
1B
30
DB
42
CC
97
43
A7
B4
1B
7C
FF
47
DE
CF
7D
46
A2
11
66
BE
91
AF
5F
85
0C
8D
F8
C7
64
B4
62
15
0F
24
61
27
E7
88
5B
83
84
DA
4A
E2
2A
47
A8
4C
D9
8F
8A
EA
BE
69
EF
4A
76
67
91
5B
9B
74
F0
2B
18
D1
D2
80
D9
AD
83
DE
08
4D
40
B2
14
69
7E
6D
78
88
D7
B6
71
46
81
68
2D
92
43
49
86
B3
F4
1F
04
46
1F
5D
73
22
BB
FB
EF
7C
2D
83
65
2B
71
5D
33
C8
93
25
8F
94
0D
3C
A7
D0
05
AD
03
79
4C
87
3F
EB
64
33
8D
A0
AE
FC
9C
5C
00
81
07
F1
5E
BB
39
71
60
48
86
ED
05
AD
3D
8A
DA
C0
84
A7
C7
43
12
AB
F6
20
CB
25
9C
E7
01
1C
E8
88
8D
C6
C3
47
B8
A3
0F
BE
10
94
EB
CD
9F
45
0D
A3
6C
54
66
FF
80
DD
9F
CB
82
BB
33
03
58
9B
0B
65
E2
4F
2C
1A
72
BC
58
03
D0
C3
50
EF
88
DE
12
75
B2
F9
F4
B2
56
13
FE
58
4E
B1
DB
26
CC
66
0C
2E
35
B8
C8
28
F4
A0
AB
45
E3
7B
B4
EC
D9
47
E1
0C
C0
55
3E
96
E8
BC
6E
B6
ED
C9
5D
3A
AF
E9
E8
65
21
31
0D
96
51
38
5B
B5
33
8F
21
8D
56
82
19
96
57
D7
AC
BF
14
9A
F5
81
E3
D2
3B
13
3B
A4
F8
DD
55
85
F3
26
3D
CE
5B
F0
DD
FC
FD
B4
FE
96
CA
D5
EE
F7
14
82
11
8A
83
75
DC
3F
08
98
63
80
F5
38
85
68
DE
42
B6
BA
B2
13
36
30
47
B5
46
92
0A
B4
09
9F
B6
9A
A9
BA
8F
05
79
17
1D
5C
17
92
14
1C
7A
72
DE
B0
AC
11
44
63
C1
0B
98
87
1D
22
BC
A6
41
F2
C1
6A
2C
D0
F0
25
68
8D
01
FF
A0
95
9C
9A
88
FA
CB
B4
8B
8F
97
CC
1A
AF
D4
B8
52
10
DE
13
82
1F
FE
2F
70
6E
D4
58
7B
56
D7
9B
6B
F3
B6
73
6E
01
A8
79
10
BF
C6
AA
EF
1A
E2
C1
AA
41
54
AC
E0
D2
5B
D0
C0
B0
A8
BC
86
00
D7
71
73
0D
65
61
8E
8D
5B
1E
CC
A1
49
3B
3B
AB
7C
65
6C
51
91
CD
A3
6D
1D
E4
9D
46
20
A3
C6
77
94
B9
05
79
9B
13
86
76
B2
D3
97
7B
8E
52
A6
8B
37
93
5C
48
E0
7F
35
7D
E3
52
43
83
75
89
7B
8A
C3
00
83
DE
93
8A
D4
C5
DD
EB
C0
EB
BD
E7
F6
74
FA
D2
3C
5A
D2
F2
57
35
C4
1B
39
BA
24
34
C4
67
B4
C7
C5
C7
D1
19
0D
2E
84
4D
9A
C1
B4
10
B5
2E
63
72
08
B5
E4
E0
6A
28
7B
23
62
1F
D7
A6
07
0B
EE
4C
53
3F
E6
E0
EE
EA
AD
08
2C
E2
98
61
90
7B
53
19
B0
B7
79
9B
60
74
3E
42
13
96
69
9A
21
D7
67
F4
96
CD
54
04
37
82
8C
E3
E4
A5
C5
F4
A0
98
8D
D1
D0
86
EC
B0
7A
AA
72
0E
C0
5B
28
62
B2
0F
D6
C9
5C
AB
4D
14
AD
5A
77
11
7F
BC
85
9F
D5
93
F0
25
99
5C
55
94
87
47
22
C7
23
CA
A9
55
5A
00
9E
36
2B
6C
CA
58
46
C2
E9
45
FE
EE
64
53
01
D5
F8
1B
B1
CD
2F
B8
95
D1
00
38
1B
29
0D
F5
A9
2C
AC
54
18
F6
2C
DE
38
95
A3
B7
04
87
8A
85
DC
03
20
0E
50
CF
46
65
20
C6
1D
BC
70
AB
31
99
57
5D
6E
EF
D4
1A
4D
8C
30
70
C3
B4
77
CE
B9
D4
51
5A
62
21
A9
28
07
4A
6F
A4
86
5F
CF
37
78
A6
15
66
15
69
01
E2
75
B1
D2
B9
E5
CA
07
1E
1E
D8
F8
00
79
22
A8
00
EC
97
25
F2
76
74
A9
6F
9B
3E
55
30
27
D6
93
1D
07
E5
56
6C
2F
DD
0B
CD
35
83
4D
2E
25
76
AF
91
8D
54
03
84
48
2D
73
63
EB
48
14
93
9F
27
30
26
8C
06
13
3C
63
9E
89
18
A1
57
C6
47
4D
F5
58
5A
C9
DC
5E
92
89
51
75
F4
1A
09
07
39
B0
B7
DF
BD
3D
72
79
20
90
82
B8
B2
59
FF
79
26
74
51
01
BE
AD
DF
D0
B6
B1
C5
2B
4B
4F
B2
04
7F
EA
63
BC
A7
56
B5
48
66
B8
80
98
91
FF
91
38
F4
63
B9
32
90
18
82
C7
49
C7
72
14
96
A4
98
96
0E
7C
D2
36
52
08
FE
38
40
FE
51
51
7E
62
09
F2
45
42
A4
56
DB
A6
9D
A4
ED
8F
39
04
B3
51
1A
42
4D
6C
F8
1F
F4
76
D8
B4
F4
A9
86
F2
8B
0F
64
51
D2
88
27
2D
AE
44
51
1C
53
0A
A0
86
DC
3A
48
A9
26
C0
49
9B
B6
A1
CF
2B
CA
D5
9D
D5
65
82
A6
B7
8A
4D
64
B9
11
35
55
E4
C0
75
EB
1C
2F
B3
45
D5
F4
0E
F0
2A
2F
40
D5
79
95
F3
CF
7A
F5
F5
B1
FF
C3
95
38
54
4B
0D
B9
8B
02
24
27
B1
57
EC
07
CB
7B
77
76
2A
37
CB
24
4D
3E
73
47
B3
E8
79
33
2B
8E
EB
00
59
79
39
64
FB
DD
0B
2D
B4
78
B4
00
73
AB
F6
1D
63
41
C1
30
00
B4
F7
33
1D
F0
E6
C8
FF
52
48
D8
4B
01
BD
C6
5E
48
73
93
40
A7
13
33
D3
89
D1
B6
4A
12
66
CA
47
DD
7E
E4
4E
E4
2C
CD
B6
F5
25
81
76
62
C8
55
2B
BB
68
EB
E3
FB
9F
36
04
F0
6C
CE
82
52
19
49
AF
17
AD
7D
7B
5A
CA
B2
CF
70
B3
C5
52
FB
9A
FD
37
82
69
9A
FD
88
50
81
F8
3C
D0
FA
0E
69
C4
3D
00
F1
3B
FB
CB
85
2D
1A
75
61
60
48
DC
7A
C5
93
7D
AE
AD
FA
B6
7D
FC
2E
39
4C
A9
C7
35
ED
85
B5
5E
40
30
AA
45
DE
44
3B
BF
24
03
1B
1F
48
2F
1C
77
5C
96
AD
5A
12
5C
13
DE
85
5B
93
F2
60
C8
D0
20
79
FA
E5
D7
BF
A0
16
63
23
B1
02
EC
60
9E
E3
3D
B5
10
17
47
EC
AA
A6
F1
85
B9
63
65
02
B4
05
FB
2E
6B
52
6D
8B
E8
51
2F
19
D3
9B
FA
F2
FE
B7
27
8E
4E
EE
FB
78
14
6C
7E
4E
50
63
D0
84
E9
4B
32
D4
1D
20
DF
85
F1
8E
1E
44
A9
98
B6
27
CF
5D
36
9D
CC
B1
96
60
9D
94
2E
6D
77
7E
71
E0
49
24
34
E6
C4
94
EB
35
A2
8A
F9
CC
A2
30
73
F2
0D
29
0F
59
5A
25
3A
78
39
E8
65
31
E7
57
91
B0
FB
46
17
3F
5A
82
F4
7C
8C
6D
C8
AF
1D
BC
21
AB
65
B0
84
40
56
3E
38
0F
A7
1D
C0
0E
F4
D2
3E
6F
98
D5
2E
72
D8
A2
6E
E4
90
B7
13
2D
F3
B4
58
D8
E5
5D
98
BB
1B
50
4A
42
EE
8B
D0
62
DD
8F
52
F5
E4
00
E7
3C
23
D5
A1
33
0C
34
E0
7F
69
B9
D8
CE
96
F0
09
31
C1
D3
F4
2F
DE
44
11
3B
53
E3
B0
B8
64
17
74
07
6D
95
BA
F9
4A
1A
F9
33
53
51
81
69
C1
0A
1B
02
5D
8F
B1
BC
53
43
77
27
A6
A8
5F
8A
3F
53
11
2C
69
4B
A6
33
E6
1F
E6
B9
F0
E7
A3
31
71
3E
B4
4E
4D
E5
8A
20
A8
82
C7
CF
AA
A6
D9
69
7A
6B
16
63
36
3C
16
9C
DB
7C
D6
4B
E3
F9
FC
D4
B7
30
A2
84
96
AD
24
BE
AF
6C
0D
D9
92
67
C2
8C
52
58
6F
08
14
05
25
6F
01
7B
3A
64
F4
B7
B8
2B
67
DB
2F
7D
08
D3
BC
37
BF
49
90
D2
30
D2
DE
02
AB
CE
8B
3F
53
30
2F
D5
2B
E9
B9
9F
20
F2
4A
08
4D
F9
05
D5
4C
41
8C
8C
0B
9C
DE
BB
EE
3C
3E
19
8A
49
D9
5E
F9
88
B3
A4
F1
EC
C3
92
5E
8D
1A
2B
06
9F
80
D2
61
8C
DE
EC
A8
3C
27
17
F9
E5
B0
03
AE
09
E1
27
11
14
4B
83
81
8E
95
5F
9B
2F
0B
21
4E
0B
74
2F
18
D2
9B
40
8F
43
D7
08
A8
08
8B
D7
91
ED
7E
23
81
4A
26
82
58
3B
62
74
EA
ED
15
B8
78
09
68
10
5C
83
D1
6B
46
28
F3
6F
B0
FE
C6
C2
6B
C4
65
6D
8E
0B
6F
67
C6
51
5B
30
BE
F0
68
B7
7A
50
47
56
54
98
41
1A
41
B4
09
71
32
4F
B3
1E
94
98
0B
A2
23
FA
89
69
CC
64
19
0A
D5
02
41
CF
D2
09
A5
A6
21
66
41
E2
9A
CA
D4
4C
9A
07
EA
AE
20
75
D0
C3
F0
DA
AD
3C
BE
46
C6
13
C8
88
62
1B
11
87
41
B2
6D
02
15
87
4D
69
54
67
F0
BE
95
90
B4
E5
D4
24
3F
01
E0
7E
C7
26
11
10
2E
F4
AB
BF
FB
6C
F2
E9
EF
87
F0
BC
70
C4
A3
E0
03
B8
F1
37
1D
45
DB
DD
C6
3B
DB
0D
E1
6C
9D
90
E0
C8
CF
5C
B5
41
C5
24
48
35
60
38
7A
83
99
FD
BB
0A
B4
58
CF
0F
B5
15
CA
10
A2
2B
FD
C0
3B
5D
08
8B
39
3D
4C
7E
E1
15
34
C1
CD
2E
C4
E6
AB
FF
70
DF
D8
BF
6E
0D
54
B8
9E
77
63
1B
B7
1F
F8
3F
2A
B2
FD
F6
B0
5E
8B
64
A0
D9
12
E4
3F
3D
64
30
9C
BC
6F
8A
49
44
C2
67
3B
A6
02
72
45
7B
31
EF
AD
AE
65
DD
8D
71
C2
AD
CA
54
11
89
12
F5
39
2E
31
29
39
FB
ED
7B
E2
A8
A1
65
9A
66
60
4B
D5
8D
7A
BB
EA
87
AC
2C
B4
F6
01
45
FF
93
BB
B9
41
6C
62
FA
E7
CF
F6
4A
F7
17
2F
11
FE
0F
DC
53
1C
D6
8E
86
DD
BA
33
11
30
B4
D7
B0
C7
12
E9
88
FE
CB
03
66
1A
79
30
91
10
DF
22
8E
6E
7E
62
0A
D5
70
10
32
AB
C3
C4
5B
F7
1B
8B
3E
AD
F4
47
2B
3F
CA
11
D9
C3
C1
EA
53
20
8C
62
0E
8B
44
98
E0
34
29
92
5F
6C
D6
3B
E4
71
46
A2
9E
BB
69
4A
7A
B3
DB
D4
F6
1D
3E
CA
BD
4B
AC
4C
56
70
64
B6
24
0D
C8
04
FA
1F
BF
5E
10
85
80
2F
C0
6A
F9
BB
9D
54
0F
14
F1
CD
5E
2F
98
8A
FB
6E
7A
DF
A4
1E
6D
ED
A2
E7
8C
E1
C5
1C
E7
C5
CB
27
AF
44
62
CD
19
F1
61
8A
3F
3F
39
57
49
B4
46
43
14
6A
E1
01
D7
04
68
E3
65
AD
80
CC
F2
CB
74
22
90
56
6F
29
C8
50
33
87
0F
ED
5E
D8
21
24
9B
B5
0F
FC
36
66
80
1E
CA
66
4B
CA
B2
BE
15
A6
60
25
7D
4F
CE
C5
1F
82
CC
AE
EF
AA
06
90
4F
21
C6
DE
9D
7C
C4
9E
1B
0E
84
E6
58
B6
24
EE
DD
04
93
DA
D3
E2
1F
72
E4
6B
A0
53
95
26
63
64
C7
A9
C2
E5
A6
07
03
41
95
07
A7
6E
3D
4C
DC
9A
D0
EF
F4
24
51
93
16
B5
7E
37
88
94
DD
6C
78
25
95
BB
8A
BB
42
0D
7C
57
94
A4
45
51
70
A1
6C
C0
11
E0
64
E2
F4
FB
18
F2
B2
20
06
0F
0C
FF
B4
22
3A
BE
5D
FC
4B
5A
D3
5F
7E
99
31
6E
BA
1D
AE
4B
7D
93
AE
F1
0E
46
64
40
E6
EA
CF
73
69
04
15
23
42
F2
9F
0E
CC
F3
ED
CA
0C
9E
B8
46
3B
E7
12
39
FA
40
AA
88
06
8E
48
6C
F9
97
5F
E2
1B
F4
86
DE
67
A5
6C
B3
18
D9
FE
A4
F8
36
6B
B3
9D
FD
6C
17
BD
97
1F
43
A5
E7
2F
1E
FF
0F
81
9A
83
87
F8
6A
AC
E4
9E
45
3E
1C
69
B6
D2
54
E9
F0
D1
D6
87
0E
ED
27
D1
12
8E
81
B1
0D
10
B2
28
13
B9
A0
FE
E5
05
1C
AA
C3
B8
94
F9
0A
68
62
7A
BA
B8
82
48
25
29
9A
B8
37
9B
E9
C5
2B
1B
6D
BE
54
8D
3C
B9
12
D8
E4
55
10
F8
CE
9B
E0
B1
95
1A
E9
97
E3
8F
40
FD
C7
F8
18
30
3D
C3
CB
2A
01
9F
37
BE
D8
CA
16
3C
9F
A7
B4
EE
C2
15
1F
D7
AF
88
EF
12
97
AF
8F
DE
27
27
8E
E4
6A
D9
8E
EC
F8
46
2A
51
90
C0
0D
AF
E7
42
1D
29
D7
BC
81
06
C5
F0
99
DC
1F
A8
3B
C7
50
49
2B
3A
A3
3A
A6
1B
00
50
EC
10
91
7A
3F
F8
3C
DD
A2
93
19
A3
19
5E
13
32
BB
B2
5B
76
F9
2B
3F
A5
E5
62
5F
0C
FE
DF
DC
6A
6F
ED
64
2E
66
20
8B
88
33
25
AB
CD
03
3E
7F
3E
70
5A
34
EA
05
F4
0F
6B
D6
EE
F7
54
4D
53
3F
3C
C1
23
EA
A7
C4
F6
AF
77
9B
DA
C4
1E
98
C4
DD
88
9E
91
F2
24
05
81
0F
5C
EF
86
30
BC
59
EF
78
9A
93
E3
C1
D7
59
F0
CE
74
4A
13
12
62
57
6F
6B
75
81
DD
19
06
DF
A8
E2
4E
AE
93
8B
88
02
83
A2
15
E6
E4
6C
BF
54
BB
B3
1F
4E
46
01
25
35
EC
1A
36
4A
B4
BD
A9
DC
1F
77
0B
32
82
13
B5
86
35
4A
EC
99
37
2C
6E
72
5F
0D
40
25
8E
E5
DB
FB
7F
91
C5
B3
CE
EE
10
6E
E5
9B
20
E8
2E
55
EE
E3
20
5A
FD
D7
06
EB
C9
E6
78
89
8B
86
EE
E6
01
ED
F8
46
21
46
B4
B1
34
1A
CC
D5
82
7A
AA
F0
DD
4A
CA
5A
A1
51
C5
EA
B7
BD
F3
C2
C4
61
29
45
CF
A1
0C
70
67
40
A1
1C
DA
ED
71
DC
E7
9B
4C
44
66
97
1F
87
68
64
F2
9F
A2
65
E1
E6
47
8A
AB
96
AB
37
86
93
F8
A7
2F
52
14
20
AF
7B
3B
7B
3F
21
92
DE
29
7A
C3
9B
99
E5
80
FB
4B
47
05
76
5D
31
2E
63
44
A6
8A
F3
78
1E
93
A7
19
4E
A3
D9
F0
B5
37
99
B0
7A
B4
C9
DF
B4
44
AA
7C
CA
A1
59
7B
4F
3D
3F
75
47
B2
6D
E6
C5
95
7F
93
B8
D8
03
ED
90
1C
1D
8A
50
67
EA
85
2B
14
81
75
35
5A
70
04
17
2F
F9
DF
61
E7
45
A6
FC
44
BA
34
9D
3D
A1
AD
DA
3F
B7
AA
26
21
AF
D1
B6
B0
C7
6B
8B
B7
F0
22
67
69
81
48
D0
46
6F
4C
0B
A9
00
28
66
22
55
C0
E1
8C
EB
87
2E
1A
D8
64
4B
1F
4F
56
57
BF
F8
3E
A9
FA
06
F9
C0
F5
C6
4B
1E
46
F3
05
E8
C8
45
49
D5
B0
50
83
4B
A9
67
16
48
36
EC
1F
76
64
DD
9F
DE
64
18
1F
D9
5E
EA
78
25
5E
FD
8D
A6
C2
57
FB
F3
27
FE
BE
50
E5
54
19
9C
C0
B8
92
A4
16
B1
03
FA
49
A2
53
28
0C
4B
CD
EA
C8
DA
11
0B
B1
8C
7E
59
0B
BC
29
70
90
C2
8C
D0
FB
9E
F4
91
CF
77
0B
99
99
DE
41
26
AA
8E
90
F2
E8
21
7D
1A
2E
7B
F3
B9
B7
9C
A9
C7
DF
B6
17
5A
D4
8C
6B
24
83
F6
3D
9D
54
FE
43
7E
0C
53
F1
74
F5
EE
0E
A3
EA
81
DC
21
9E
05
69
FD
3B
00
D7
90
0C
C2
34
10
38
F1
2D
0C
6F
F0
0B
FB
C3
7C
EF
38
EA
7E
5B
54
7F
B7
F6
9D
3D
DF
1A
F8
5F
71
08
EC
B3
BC
7C
6B
2D
29
F8
1C
99
83
97
DC
7F
07
95
E9
05
70
BE
04
A8
34
22
65
93
BC
DD
72
AE
66
DE
E1
A2
DA
CD
50
83
45
EC
9C
48
04
F9
47
8B
0E
B0
10
FE
EE
94
26
A2
36
0B
B5
73
69
A8
A1
4F
06
02
71
61
4F
41
64
14
AE
81
DC
32
FA
A3
3D
88
D4
CD
06
42
E1
AD
65
98
38
9A
8B
21
C2
AC
F0
49
2E
E2
2A
FE
A3
0E
92
D1
0F
EF
83
89
12
40
91
66
8D
18
29
EF
45
0E
07
FD
28
12
9F
6B
3E
0F
34
EC
71
DE
6A
95
6C
7D
E6
FC
EC
EA
05
7E
AA
17
65
B8
AF
0E
27
74
9C
AE
F1
44
40
10
2F
FE
A0
E3
6A
91
41
55
A6
2E
52
0D
AA
BE
77
2F
BC
A1
C6
A1
D9
F5
2F
80
E9
4B
AE
5B
10
6E
EB
BF
EC
0B
23
D7
1D
E4
AC
43
92
7E
D0
BC
BC
C7
6C
F8
E9
B2
1A
42
28
C9
43
91
95
71
6C
25
60
D8
64
CC
63
07
23
00
6C
4F
C4
7E
4D
14
BB
89
5C
A7
02
C5
D9
9C
87
81
E5
4A
93
FA
3C
7F
9F
1C
D7
84
68
BB
0B
0C
3B
F7
DB
7F
F6
A9
14
31
B2
F0
58
34
35
B1
50
3C
B3
B6
07
C6
30
C3
C5
50
5F
1D
54
47
58
DF
D3
13
57
2F
13
CD
58
A7
7E
8A
17
56
3F
CC
87
0F
88
BA
45
0F
00
F6
52
46
C6
31
E3
9A
F9
BB
F9
4C
4E
D0
FB
E1
1D
D3
08
1B
DE
9F
F1
9D
EB
F9
2C
F4
33
F2
83
B4
68
56
7A
AE
07
DD
C8
80
18
41
4D
E6
92
C8
48
2F
1C
D0
CB
7A
F0
3C
97
5B
B5
43
CF
69
B5
D3
9D
9D
A9
97
CB
30
F4
13
31
8C
D5
FE
F2
E7
46
BA
96
E2
0B
E1
DC
7B
9E
F3
56
D3
B7
A6
BC
EC
F9
D9
0A
22
F0
55
D2
64
E9
83
70
3E
01
E3
A5
C8
1D
BB
2A
A8
1D
87
A3
3B
FA
7A
8E
31
A0
CB
9E
19
24
28
BB
95
FD
0D
79
66
11
6A
24
92
CD
49
DA
6A
85
85
93
22
8C
B6
DD
06
B0
EB
B8
D0
36
D6
69
DB
7E
A4
F0
FB
32
E9
E2
C3
D3
86
D5
20
50
30
0B
55
35
1E
F7
41
54
54
C7
85
BF
FF
D5
76
55
BF
D1
53
E3
41
CF
95
AA
31
D8
FE
37
2E
9E
07
DE
29
DC
93
C7
53
54
9C
27
9B
A1
67
1B
F6
5D
F0
35
AE
C4
99
6F
13
AE
99
C4
07
17
7B
B5
36
03
13
DF
5F
26
27
33
FA
43
DA
15
64
C1
B0
DA
9E
21
90
CC
65
A9
BB
F8
D7
D5
3C
5E
6C
37
93
22
BA
26
82
9A
CC
29
4D
46
EC
A7
DC
D0
E9
0C
2A
07
AD
3A
54
92
63
8F
0A
BB
E4
C6
99
D1
7E
AD
73
B8
53
75
D2
A0
1E
9F
66
8A
C7
C2
DA
30
4F
85
B7
7C
3F
8B
8F
23
9B
19
5E
FF
60
77
50
5E
A4
44
96
78
39
E9
98
D8
08
7E
E2
4F
C1
3D
FF
90
42
37
8C
01
42
9B
A4
5D
35
82
DD
15
7A
AD
F3
9E
71
09
96
2B
72
AE
83
FB
AD
E5
CA
EE
A2
4A
FE
64
01
0A
E6
C3
26
0A
A1
DB
0D
FE
70
07
2B
E3
25
1D
6C
3C
C8
5F
6A
CB
DA
97
30
24
05
53
EE
83
37
6F
0E
9D
B3
B4
28
D4
0F
B5
52
FF
3C
FD
62
E1
9A
4E
9D
E2
2D
88
2D
87
9F
DE
2C
25
B1
9A
28
68
8A
B6
86
BD
EA
2E
11
79
63
E3
F8
1F
60
DA
80
7B
A9
9E
DD
56
A6
8B
5E
C5
E9
0A
6A
1A
24
13
02
2E
49
08
6B
B4
B6
FC
AD
99
5F
26
38
40
80
39
3B
A9
57
98
80
7D
A3
5E
C2
0C
E8
AD
A6
8C
40
29
3B
09
B1
26
3D
E8
A3
6B
01
82
11
BA
42
11
73
FD
3B
4A
16
3B
47
39
19
89
C6
81
B6
EC
8D
76
95
48
00
C7
EF
BD
2F
12
A8
B0
14
39
EA
D7
CB
DD
54
86
A7
EA
41
6E
A4
DA
78
EA
DB
AE
56
E8
A5
6C
B1
25
B3
20
62
62
B2
8B
92
46
44
FD
9D
8F
5A
72
95
82
DC
56
70
00
B0
68
6A
0B
97
41
74
BC
2D
A5
61
60
45
43
42
77
4E
54
3D
13
D1
5B
22
AC
4D
38
AE
A9
0E
9E
2A
3F
87
14
CA
9E
D5
BE
DA
82
E3
BB
62
A8
7E
24
9F
4D
F9
5D
E0
4A
38
82
76
05
3A
A4
2E
C9
C3
D8
88
CA
6D
D2
E8
C2
11
42
C5
74
7D
A7
9D
7B
4C
BC
48
C5
99
A8
8F
51
AB
86
D6
65
AA
85
AE
ED
DD
B6
37
CA
09
9F
0D
9A
61
52
8E
5E
79
AB
5A
45
E8
22
8A
01
4B
9A
D3
76
A0
29
5B
CA
2E
8A
38
8C
C0
EF
D6
49
0F
63
63
F0
35
72
CF
2F
9D
A9
F4
05
4B
FF
87
16
19
DA
0C
39
83
E8
83
32
F2
3B
3E
32
AB
94
FC
3A
78
DF
AA
2D
D1
F9
DC
EF
22
51
74
EE
D0
7B
84
69
D5
11
22
D9
79
25
8B
EB
E1
49
9D
0C
5D
19
C6
55
79
F0
03
CA
6A
5F
39
0C
30
2E
7A
80
29
7F
69
7F
10
0B
D8
09
B1
E3
74
12
AC
91
9E
89
2B
E4
5F
24
54
E2
6E
3E
C1
28
CB
72
D6
C5
72
7F
C4
5C
7E
54
E7
D6
DD
18
39
D1
AA
65
E3
C8
6F
8E
2C
4E
32
01
B0
20
BF
F1
C8
0A
E3
1E
50
D6
1E
94
B2
1C
69
19
73
C6
B2
2C
18
DC
12
7B
25
01
89
D1
CF
3B
52
FF
DB
92
70
24
1C
D4
C2
EC
2A
60
01
5C
FD
EA
F5
F0
30
27
9C
C8
84
2E
C3
29
AF
CC
7A
FE
87
4D
7D
E3
5F
6E
87
FB
C2
C9
68
6C
AA
E9
48
27
53
BD
97
03
65
B3
4C
69
62
8F
12
91
DC
0C
10
E3
D9
0D
46
B8
FB
4D
34
3D
97
1C
29
C1
85
F1
68
58
2F
7F
DB
14
B2
A7
FD
94
B7
8F
A6
13
1B
36
76
75
C3
3D
AD
3F
0A
61
FC
21
FD
A6
62
02
17
4A
DA
C6
49
36
5A
7C
5D
D7
90
94
E6
B6
27
82
6C
1E
77
B0
DB
A4
6F
65
86
EB
07
03
11
E9
86
A9
B4
E0
EF
7D
96
CA
79
74
21
8A
88
88
C0
30
8A
AD
CE
81
DD
29
A5
CC
0E
AB
37
95
2F
C9
FF
35
F2
33
95
61
30
AC
AB
2A
A0
4D
34
A8
55
74
58
5F
A1
A6
60
FE
4F
85
4A
DE
B1
02
F3
60
4B
72
15
BD
25
2A
9E
D6
56
CA
80
76
97
34
9F
6C
28
77
4B
4A
9E
2B
C8
6D
30
93
CB
61
15
3F
41
E0
31
D6
1D
D7
81
3B
2D
57
85
2D
4E
9C
E1
6D
88
89
64
53
53
82
FE
9C
70
AF
AF
BB
90
44
7A
52
A4
2C
A8
41
83
A9
FC
30
81
02
DD
4F
1E
3E
3C
27
47
20
FA
1B
23
79
37
13
A8
66
4E
B8
2A
49
8A
4E
F5
B3
0F
F8
DC
8B
A8
DD
0D
05
AC
AC
C3
68
53
8A
09
CD
25
AC
C6
DC
3F
EE
C2
0D
27
6C
D6
31
3A
4B
64
C9
C3
C1
D5
EB
1E
62
70
4B
8E
B3
33
61
BE
BC
AF
63
E8
F5
C0
A7
64
02
35
0B
EF
8B
BC
A9
57
A1
F3
9A
E2
48
06
80
2A
F6
4B
39
2A
FF
1A
68
3B
49
4B
A4
BF
8B
CB
A3
0E
80
2E
7D
8C
6A
A6
63
8B
19
7D
ED
E1
03
EE
8C
7A
B9
45
24
38
DF
0C
F4
A9
D7
18
E8
E3
63
0B
71
64
B9
6E
70
A3
94
53
AF
2E
50
1C
8F
D4
8A
9B
CE
C4
60
72
7C
C0
FE
F0
E9
55
88
51
B8
6C
DC
A9
50
15
97
40
38
AC
13
67
5A
E3
04
69
37
0E
85
85
52
65
77
4F
A5
F5
BF
0E
CB
C8
DF
03
B4
3B
2D
84
D0
44
44
89
70
D7
70
4A
3A
F4
34
F2
83
39
F7
55
1E
EF
24
44
64
64
D2
AF
AC
32
33
E0
ED
E0
E4
3E
A4
A8
47
95
FF
37
5F
B9
AC
13
2B
AF
CC
A3
84
6B
12
29
2F
F6
0D
81
26
39
33
D9
99
A1
39
FD
5F
5D
25
26
72
A4
DD
52
DD
09
E5
89
38
32
AC
3D
1D
3E
E6
CC
B4
73
CD
5A
2C
81
B3
45
A2
6C
C2
81
4A
67
27
3C
8B
84
0E
E8
0E
74
F1
C6
26
1D
83
C3
DB
E9
0F
10
DC
5C
EA
88
5D
1E
4D
7F
0A
8F
80
D4
76
27
91
81
2C
1F
EA
BA
13
5B
00
B9
F9
04
FC
54
6D
8B
E4
CA
68
4F
D2
45
ED
A0
45
77
AF
45
CC
A6
ED
DD
A7
99
7C
11
D3
10
ED
53
49
66
D7
C6
3A
C5
D1
9F
0F
B9
6E
61
7F
DB
81
44
D2
B1
09
1E
D7
76
7B
FE
8F
78
90
E2
08
FD
B6
D1
E3
0D
17
9D
52
69
BC
E1
A2
AA
C3
A1
05
C4
65
58
F5
EF
F6
4C
E5
F2
CB
F5
EA
DB
57
72
58
8D
C3
BB
1B
5B
D8
ED
44
15
4F
66
3F
92
88
C5
D6
6D
9D
4C
DC
13
18
42
85
63
B7
EF
BE
8E
E1
96
9C
25
D1
37
00
2A
A4
C4
BF
73
AA
7E
85
B2
C3
DC
A0
E0
A8
FC
74
40
BE
79
24
F5
E9
62
04
4A
79
20
EF
CA
D7
6F
74
FB
B3
B3
EF
DE
B2
F4
10
F5
50
30
56
78
AD
4A
39
EB
43
DD
61
AC
BF
E5
77
B8
85
E6
03
DC
D6
F7
57
09
2B
C6
67
5D
3B
F8
D2
0B
A8
A8
04
D5
72
BD
41
36
1A
22
62
59
87
59
92
8C
C0
15
E8
16
8C
BF
9F
37
06
87
14
C1
FF
67
4C
27
8F
D0
7D
82
0D
3E
38
A7
E0
1A
81
E7
F4
93
F3
34
28
5B
CA
34
9A
E9
EC
20
F0
80
61
6F
67
2E
17
77
7E
14
79
0C
D2
31
33
32
CB
34
99
3F
47
0C
F3
EF
E7
3D
A4
01
A7
10
A2
17
10
83
07
F8
31
9E
EF
30
32
E8
BC
84
99
6F
36
E4
24
4F
A4
EB
DB
17
5B
42
D5
7F
C3
FC
0F
E5
93
9F
E9
1A
17
9A
38
86
4A
EA
EE
86
EE
07
76
A4
6C
1A
73
90
85
CE
27
60
90
7C
5F
D4
F8
EE
39
0C
0E
A2
A6
A5
BD
5F
AC
87
C9
1A
8E
38
A2
84
5C
8E
1E
50
9E
23
9E
45
04
AF
42
E3
03
BA
52
BC
46
E0
DF
6D
05
1C
4C
31
23
95
CC
31
4D
EE
35
2A
FC
D3
FA
1A
77
18
DF
FB
47
A1
5E
CA
DC
30
07
A2
90
66
8F
16
02
5B
C7
A5
71
13
57
3E
81
0C
E8
FD
60
62
97
57
FB
F7
D2
C2
18
B0
0D
74
61
94
97
71
7A
A6
07
FC
82
4F
21
73
E2
F8
31
E4
85
9A
61
65
7C
79
3C
F7
F0
8E
3A
88
BE
C7
7D
9F
DB
94
91
D5
BA
18
51
BC
E7
F2
AF
4A
6B
61
AE
70
7B
8F
55
77
88
11
EF
F8
1F
A9
01
5D
F0
FE
7D
4B
12
8E
A0
4C
26
71
89
8E
E3
B8
58
CE
99
86
BE
94
95
93
8C
9E
24
FB
16
C3
24
97
A1
94
15
9E
5F
A7
AC
7F
74
52
70
7D
60
D3
B5
38
22
CF
3E
60
E3
54
74
EF
72
18
6A
08
5C
0E
20
7D
22
B5
9B
01
DD
C7
00
D1
99
F0
CE
7A
44
03
32
E6
52
F1
C6
B6
C5
BA
25
B7
53
10
3F
2F
9E
DF
2C
41
15
47
C2
72
8E
43
C3
A7
B3
11
A1
77
94
54
DD
67
C5
24
9D
0A
5E
42
41
31
D2
00
E0
F1
60
8C
B2
F5
53
F4
E7
61
B7
2A
89
EB
BB
AA
E2
CF
7E
40
B6
C3
E4
D3
4D
C2
96
0E
74
E8
8F
D4
59
6F
E1
8B
E4
B4
00
4B
96
37
F5
9F
A2
30
C9
05
7F
C8
C5
B6
0B
29
09
D9
6B
1F
67
5F
88
76
B4
61
65
15
6D
C9
49
ED
94
5F
A4
09
7E
C7
B9
C8
4C
B9
10
91
EF
9B
3A
78
F4
25
18
DC
05
20
D2
39
01
B8
CE
EE
01
97
5B
16
77
80
9F
75
C7
D9
BD
93
12
4D
A4
81
69
5E
79
DD
03
11
39
88
B1
8C
41
33
C4
8F
A1
45
A7
7D
DB
9E
7D
FB
93
C4
54
D1
D7
E6
9E
FB
E7
87
D9
E0
E5
5C
72
9E
65
A3
AA
26
56
EE
36
78
B4
5D
75
0F
7B
72
8A
8E
B6
5E
DF
0D
C4
FE
88
2B
05
E1
8C
6A
BD
7E
89
A2
A1
B3
49
78
22
FF
70
56
DC
65
E5
D7
57
F0
E5
8D
CE
45
1A
13
C3
22
BE
48
83
CA
33
C0
C8
3C
E3
EA
6F
AC
E2
11
2B
D2
E7
87
B7
4D
DE
8E
BD
43
9B
0B
08
35
9E
4B
D7
DD
14
DA
27
C7
1A
70
83
7D
DA
72
A9
3C
04
54
8E
6B
5B
C5
38
B9
D3
75
7D
EE
01
05
A3
1F
D1
FA
7C
65
54
24
AC
EE
14
AF
EC
6E
A1
15
2A
25
EA
38
11
C5
7D
C9
FF
D0
BF
FC
3E
40
81
61
DF
D2
DB
DC
B7
AF
80
E3
1D
14
12
89
02
34
1F
AC
D9
89
64
6A
CE
61
B4
4D
B1
F3
C9
6F
B3
CB
50
12
1D
AB
6E
55
DA
6E
B8
77
02
4B
81
84
FF
20
B0
58
29
94
43
77
75
77
45
A6
EA
8E
95
1D
D9
65
AF
77
90
9E
4C
EA
8C
84
E2
0F
4F
E3
13
CE
83
44
A7
2C
58
6A
23
4E
61
E8
74
CB
F7
8A
68
50
6F
97
47
80
B5
13
EA
C2
18
4C
51
E7
AF
E4
36
B2
A8
5D
5E
81
47
02
4F
28
6A
43
73
E1
4D
5B
B2
3D
72
79
3D
A8
0D
A7
EA
A5
74
BB
0C
A3
1F
C2
D6
48
9F
B4
49
66
36
18
0E
21
DB
01
82
A9
DC
B4
66
CF
AE
23
F7
3B
4A
61
60
3E
9C
EC
62
3B
2F
B8
03
4E
EC
CC
35
A3
64
C3
44
C0
45
46
E9
A1
7B
CF
F0
A9
72
67
64
3C
48
44
FB
64
B0
DD
20
5F
15
A3
2E
81
F0
E3
A4
D4
26
68
14
EB
2F
7D
0D
2A
CC
7D
53
BE
65
37
7B
2D
FB
F6
12
2B
53
B2
0B
E8
D5
B9
E9
45
1C
0E
9A
C2
F6
2E
2E
A5
2C
BB
4F
78
B8
22
B7
9D
D9
B2
4B
54
28
DD
00
FB
0F
8B
63
64
C4
CC
2A
60
5A
44
A2
D1
F2
50
F6
9E
8B
C6
97
C4
68
CE
E1
C2
00
AC
96
A8
09
16
23
98
21
06
7D
65
52
27
45
2D
EB
68
7E
5D
38
F4
7C
44
3A
93
88
23
E1
E9
65
61
16
7B
89
9F
12
2C
B8
B3
B2
B5
99
84
5C
5E
31
C7
46
2F
A4
FF
A4
A0
C3
5E
B3
CB
01
14
34
E6
F5
CA
E2
FE
EA
74
AA
22
A7
DC
57
C0
E1
33
9F
92
7A
65
42
9E
E4
66
BF
27
44
F2
72
C6
87
27
2C
FC
71
8E
7B
DB
82
A5
7D
AA
02
54
EA
63
07
09
75
01
EF
37
20
53
1D
5F
FB
E2
D1
ED
28
D8
94
D4
55
86
E3
50
E1
E5
75
DF
0F
F7
B3
7A
DA
3B
03
D0
BC
72
87
5C
46
25
3B
C1
87
8D
2E
2F
E5
43
83
BA
49
E6
8A
AA
4C
80
09
DB
F7
3D
D5
52
F8
59
A2
34
4B
A9
11
11
4E
CC
52
55
D9
01
04
3F
C4
08
79
8D
6E
84
B7
3A
84
41
96
FB
FE
EB
CD
76
C4
EF
2A
90
19
BB
21
E7
08
F4
BD
61
75
41
20
B9
C9
1A
C6
B8
1E
FD
72
22
BE
88
9D
3C
F4
EB
32
38
5A
DD
48
F3
18
EA
5B
A0
5E
98
82
53
59
22
8C
A3
BC
D2
DB
5A
4F
CD
FC
8E
D6
1A
4A
4A
85
FD
02
5F
5A
CB
D3
F2
35
AE
13
13
C6
15
E6
9F
B7
F2
C2
F4
44
1D
CE
13
6B
4B
21
C1
E5
EC
8B
EA
69
0D
C9
43
58
1C
B5
0D
4A
48
A0
90
DD
06
B0
15
78
F2
89
3C
90
D7
D0
7B
A2
71
BC
07
DD
C7
71
C6
54
BB
89
2D
57
BF
BA
22
87
DB
32
E5
61
62
7A
5A
D5
83
16
E5
DA
66
E0
FD
58
1C
84
B5
63
76
FC
37
B1
05
E4
88
44
1F
2A
4C
7A
DD
B1
5B
BF
AB
35
14
AE
CC
79
08
B2
D9
85
8A
75
8A
C0
58
80
3C
10
B1
C1
74
B9
86
13
64
52
0D
C1
83
E9
00
AE
9E
95
DC
EA
8E
64
1D
E8
6A
27
DD
74
67
B6
74
23
46
A5
65
3A
DE
6B
CE
C2
3D
5B
03
40
C4
84
6E
E3
99
CA
4D
A7
AE
EA
0F
98
92
6D
8C
79
A3
80
1D
69
A5
02
23
04
ED
71
46
AA
4D
CA
6A
91
CE
58
F4
E7
A2
C2
0E
D0
2C
9E
E9
3E
8B
F5
38
AE
F6
D5
97
1B
57
3A
9F
C4
2C
66
EE
F9
B0
D8
0A
FE
B0
7F
65
D2
C1
F3
22
6D
11
