24
F0
6F
BD
DC
25
4D
0C
BA
85
5D
E8
59
0A
4F
DD
B9
35
9B
74
D0
62
83
2E
C0
00
14
F6
04
63
6B
A8
D3
5A
E6
30
FF
B3
BC
39
B8
99
A2
92
24
71
EF
5D
26
0A
51
76
EC
55
24
2D
D5
B8
A3
59
9B
8E
82
EF
68
E8
9F
E7
1B
DB
A1
53
F5
C3
65
99
B4
D4
76
5A
5E
47
50
CB
1C
F4
78
72
2C
9B
4B
47
A9
4D
B6
91
B5
D5
F8
50
31
19
24
A6
5C
09
BF
90
5E
B5
6A
3C
7C
3A
87
19
AE
7F
0B
5A
9A
D6
22
C3
A4
58
D4
D9
AE
4D
AA
5F
E6
4E
85
C3
D7
C4
D3
B5
F9
BE
72
F5
78
79
8E
A7
79
19
81
93
70
23
D7
94
FC
2B
ED
2A
F8
17
09
5F
E5
0E
A2
3D
52
F5
72
CB
33
64
40
2C
5E
4F
53
57
E8
54
6A
D8
F8
C1
EC
74
6D
5A
1E
E5
F1
A7
C4
57
35
E6
14
07
5C
06
52
0F
EB
12
BB
C9
E1
8E
A0
4A
63
8A
A2
DB
CC
0F
CF
B9
E9
6D
1E
5A
94
63
31
49
C9
C5
D0
A5
4C
A2
35
B7
34
70
00
96
7F
20
60
62
2A
82
BD
76
11
0C
AF
7A
F9
4E
55
0D
