4C
87
FF
B8
B6
92
19
FD
30
8E
7A
3B
5B
7B
E1
A2
BE
23
58
C0
B1
1B
84
26
89
BA
D0
8F
1A
B7
D9
E7
BE
58
1F
F5
6B
B8
72
1B
C7
6D
D7
A2
68
38
C5
A6
DC
9D
E6
0D
38
EA
B3
42
25
03
51
BF
3B
AB
26
79
83
C5
EE
6E
FE
E1
0A
45
CE
61
67
B6
19
AC
DC
75
C9
42
03
82
AC
36
44
51
BA
15
91
75
40
37
6E
44
7D
DD
32
FB
3E
BC
C0
8C
9D
A7
C2
37
D4
1E
2C
1D
E0
AF
1F
0C
66
E3
DE
A0
79
EF
95
39
A6
83
FD
A3
E0
B0
1E
9E
EC
5E
AA
0A
86
EC
C1
DA
8A
6D
77
EA
9D
17
77
83
7A
D5
A3
73
44
B8
2D
6A
BB
AA
8E
1C
DA
2C
3A
47
0B
65
D1
11
D1
12
6B
DC
FF
62
46
1C
F9
3D
1F
F4
92
42
E7
56
7A
94
41
B6
BF
4F
52
19
FB
0C
E0
86
F1
31
17
43
C3
02
9F
43
E5
65
DF
5E
23
7F
D2
35
41
3A
0C
3C
4E
CD
72
8D
9C
44
27
17
D0
87
1E
42
39
B5
05
7C
38
24
3F
9D
09
9F
7B
AC
9E
CE
62
5F
88
EE
1B
56
3B
0D
64
57
D1
0B
EE
22
